<pad>	0
<s>	0
</s>	0
<unk>	0
.	-2.25906
▁Tom	-3.90076
▁a	-3.9193
s	-3.93392
▁I	-3.98005
'	-4.03289
?	-4.12741
▁to	-4.27171
▁de	-4.4305
▁the	-4.4533
▁que	-4.52285
▁you	-4.65096
t	-4.68662
▁¿	-4.82143
▁la	-4.82616
,	-4.91719
▁is	-4.91954
▁no	-5.05471
▁en	-5.0638
▁el	-5.12041
▁me	-5.1208
▁es	-5.21851
▁un	-5.26075
▁	-5.28622
▁No	-5.32471
n	-5.34584
▁in	-5.37371
o	-5.38501
▁Mary	-5.41429
▁of	-5.46667
▁He	-5.50003
▁was	-5.56944
▁se	-5.65165
▁that	-5.68234
▁una	-5.74823
▁The	-5.7526
▁have	-5.80133
y	-5.80329
▁lo	-5.81778
▁it	-5.82417
▁for	-5.84312
▁por	-5.90895
▁he	-5.95821
▁You	-5.96407
▁con	-5.97418
▁Él	-5.98069
m	-6.00664
▁su	-6.04145
▁do	-6.04879
▁my	-6.0579
▁está	-6.07237
▁be	-6.07244
▁She	-6.12871
▁this	-6.15537
▁on	-6.16321
▁can	-6.17294
▁his	-6.17991
▁your	-6.18589
▁want	-6.18842
▁We	-6.20013
▁with	-6.20431
▁El	-6.22323
▁le	-6.22754
▁para	-6.23071
▁are	-6.24642
▁It	-6.26646
▁al	-6.26893
▁los	-6.27633
▁and	-6.27772
▁did	-6.27963
▁not	-6.28026
▁has	-6.28224
▁y	-6.29609
▁like	-6.29646
▁mi	-6.30205
▁don	-6.30347
▁Ella	-6.31762
▁know	-6.32557
▁más	-6.35142
d	-6.40944
▁Me	-6.4127
▁him	-6.4229
re	-6.42765
▁at	-6.44253
▁A	-6.44262
▁La	-6.47831
ó	-6.53902
▁las	-6.54688
ll	-6.54976
▁go	-6.56165
▁What	-6.56189
▁te	-6.57515
▁qué	-6.60644
▁what	-6.61499
a	-6.61769
ed	-6.62356
▁her	-6.66098
mos	-6.66125
▁tu	-6.67646
e	-6.69507
▁time	-6.70261
ve	-6.72115
▁muy	-6.72715
ing	-6.73089
▁Do	-6.73349
▁This	-6.75071
▁very	-6.75269
▁had	-6.75636
▁will	-6.76613
▁They	-6.80275
▁del	-6.8144
▁él	-6.82874
▁up	-6.82944
▁about	-6.83927
▁M	-6.84298
▁Es	-6.85061
▁tiene	-6.85172
▁Esto	-6.85378
▁here	-6.87037
▁think	-6.87427
▁casa	-6.87522
!	-6.88361
Qué	-6.89668
▁out	-6.93198
é	-6.95629
▁hacer	-6.9596
▁estaba	-6.96318
▁all	-6.96647
▁from	-6.98592
▁aquí	-7.00146
▁Yo	-7.01645
▁get	-7.0244
▁como	-7.02974
r	-7.03546
▁fue	-7.04203
▁were	-7.05619
▁ha	-7.09671
▁Mi	-7.09789
▁we	-7.10066
▁mucho	-7.10713
do	-7.11288
▁That	-7.11526
▁doesn	-7.1164
▁going	-7.11735
▁one	-7.11783
▁an	-7.12321
▁tiempo	-7.12403
▁son	-7.1314
▁algo	-7.13305
▁eso	-7.13457
▁esta	-7.14174
▁gusta	-7.14382
▁by	-7.14675
▁There	-7.17254
▁favor	-7.17894
▁come	-7.18808
▁good	-7.19186
▁see	-7.19362
▁as	-7.20615
▁ir	-7.21398
▁there	-7.22271
▁so	-7.2244
es	-7.23321
▁How	-7.23943
▁could	-7.24447
▁need	-7.25024
▁should	-7.25091
▁tan	-7.25107
▁been	-7.253
▁este	-7.25816
▁Don	-7.27413
▁Boston	-7.27845
▁vez	-7.28658
▁nada	-7.28988
▁she	-7.30441
▁bien	-7.31059
▁todo	-7.32188
▁si	-7.34151
▁more	-7.34781
▁help	-7.35143
ly	-7.36581
▁just	-7.36621
▁but	-7.37515
te	-7.37704
▁than	-7.37715
▁Los	-7.38098
▁would	-7.38234
▁car	-7.38303
▁era	-7.38537
▁ser	-7.39538
▁puedo	-7.39539
▁Esta	-7.39928
▁us	-7.40224
Por	-7.42818
▁got	-7.4371
▁never	-7.43758
▁when	-7.45205
▁am	-7.46108
▁much	-7.4676
▁now	-7.47415
▁tell	-7.47554
f	-7.47659
▁Se	-7.47828
▁ella	-7.48383
▁day	-7.48452
▁esto	-7.48508
se	-7.48975
▁¡	-7.49165
▁Why	-7.49257
▁trabajo	-7.50264
▁something	-7.50352
▁Teng	-7.51533
▁puede	-7.51745
▁last	-7.52549
▁if	-7.52591
▁home	-7.52778
▁work	-7.53451
▁cuando	-7.53535
▁quiero	-7.54011
▁money	-7.54107
▁too	-7.54305
▁Lo	-7.54317
▁Quier	-7.54376
▁dinero	-7.54779
▁mañana	-7.55837
▁dijo	-7.56532
me	-7.57526
▁hablar	-7.58175
▁T	-7.58298
▁Are	-7.58715
▁some	-7.59511
▁Te	-7.6036
▁Tomás	-7.60636
▁yo	-7.60688
▁pero	-7.60772
▁Le	-7.60987
▁dos	-7.61105
▁back	-7.61549
▁tengo	-7.61966
▁Ha	-7.62131
▁how	-7.6238
▁take	-7.6308
▁Please	-7.64161
▁Let	-7.64586
▁día	-7.64664
▁who	-7.65319
▁estoy	-7.65582
▁people	-7.65975
▁house	-7.66945
▁really	-7.67396
▁book	-7.67475
▁went	-7.67941
▁Can	-7.68058
▁said	-7.68263
▁libro	-7.68293
ta	-7.68418
▁told	-7.6915
▁Ello	-7.69342
▁sus	-7.69495
▁o	-7.69639
▁must	-7.70266
▁Este	-7.71122
▁Por	-7.71282
▁S	-7.714
▁Todo	-7.7154
▁poco	-7.71835
▁Si	-7.7327
▁haber	-7.73538
▁lot	-7.73688
▁any	-7.7385
▁thought	-7.74018
▁man	-7.74114
▁anything	-7.74312
▁todos	-7.74499
▁ver	-7.74925
▁había	-7.74985
▁room	-7.75109
▁French	-7.76649
▁eat	-7.7708
▁quiere	-7.77352
▁say	-7.78089
▁made	-7.78845
▁va	-7.79105
▁mejor	-7.79483
▁años	-7.79883
▁always	-7.79954
▁school	-7.80064
▁Who	-7.80233
▁right	-7.80812
▁están	-7.80909
▁idea	-7.81075
▁hace	-7.81215
▁estar	-7.81407
▁long	-7.8256
▁only	-7.82653
▁make	-7.82675
▁John	-7.827
▁padre	-7.82914
▁francés	-7.82955
▁tarde	-7.83211
▁demasiado	-7.83595
▁sabe	-7.83642
▁María	-7.83727
▁Creo	-7.83982
▁speak	-7.84175
▁Su	-7.84387
▁So	-7.84453
▁"	-7.84833
▁When	-7.85021
▁solo	-7.8505
▁two	-7.85279
▁today	-7.85717
▁Where	-7.86472
▁father	-7.87258
▁many	-7.87737
▁new	-7.88257
▁old	-7.88989
▁love	-7.89125
▁hizo	-7.90096
▁hay	-7.91089
▁three	-7.91337
▁night	-7.91755
▁antes	-7.92677
▁still	-7.93017
▁wanted	-7.93069
▁Eso	-7.93181
▁well	-7.93348
▁ahora	-7.93583
▁off	-7.93608
A	-7.93654
▁our	-7.93877
▁tres	-7.94301
▁N	-7.94486
lo	-7.94817
▁noche	-7.94822
▁quería	-7.95295
-	-7.95301
▁talk	-7.95693
D	-7.95761
▁hora	-7.96407
▁asked	-7.96408
▁E	-7.96593
▁every	-7.9741
▁over	-7.97937
▁before	-7.98387
▁Did	-7.98553
▁tenía	-7.98677
▁way	-7.98694
▁sé	-7.98707
▁give	-7.98808
▁ti	-7.9885
▁left	-7.99131
▁dog	-7.99538
▁tomorrow	-8.00184
▁or	-8.00416
▁siempre	-8.00492
▁nunca	-8.00642
▁won	-8.00791
▁sobre	-8.01098
▁C	-8.01135
▁job	-8.0301
le	-8.03396
▁little	-8.03577
▁mí	-8.03645
▁perro	-8.03983
▁verdad	-8.0407
▁hombre	-8.04142
▁saw	-8.04211
▁where	-8.04244
▁live	-8.04631
▁again	-8.04663
▁comer	-8.05251
▁estado	-8.06202
▁into	-8.06491
Cóm	-8.0708
▁vida	-8.07433
▁they	-8.07452
▁down	-8.07586
▁Está	-8.08277
▁years	-8.08298
▁better	-8.08572
▁English	-8.0889
▁sin	-8.09716
▁mis	-8.09871
▁nuevo	-8.10615
ónde	-8.11042
▁does	-8.11175
▁ese	-8.11293
▁buy	-8.11811
▁inglés	-8.11915
Quién	-8.12085
▁Un	-8.12458
is	-8.12542
▁came	-8.12554
▁En	-8.13229
▁yesterday	-8.13288
mente	-8.13567
▁usted	-8.13918
ok	-8.14159
▁Have	-8.1419
▁días	-8.14574
▁find	-8.14753
▁happy	-8.14856
▁play	-8.14862
▁Las	-8.15398
▁look	-8.15415
▁coche	-8.15509
▁leave	-8.16087
Te	-8.16226
▁hoy	-8.16461
No	-8.16497
▁read	-8.17113
▁decir	-8.17317
▁mismo	-8.17359
▁hecho	-8.17366
▁gente	-8.17525
▁mother	-8.17707
l	-8.17984
▁understand	-8.18147
▁Tiene	-8.1843
▁esa	-8.18672
▁nos	-8.18768
▁problema	-8.18788
▁nothing	-8.18796
▁other	-8.19063
▁uno	-8.19516
▁first	-8.19529
▁believe	-8.20101
▁d	-8.20269
▁debería	-8.20745
▁them	-8.21261
▁next	-8.21386
▁hard	-8.22115
▁estás	-8.22251
on	-8.2236
▁put	-8.2277
▁gustaría	-8.2291
▁plan	-8.23129
▁after	-8.23278
▁semana	-8.2342
▁madre	-8.23507
▁alguna	-8.23661
Cuál	-8.24045
▁parece	-8.24398
▁ya	-8.25006
▁stay	-8.25562
▁Sé	-8.25566
▁door	-8.26259
▁morning	-8.2658
▁bought	-8.26779
▁tú	-8.27174
▁puerta	-8.27372
▁Ya	-8.27461
▁problem	-8.27529
▁friends	-8.27835
▁otra	-8.28009
▁name	-8.28206
unca	-8.28573
▁life	-8.28574
▁His	-8.2869
▁habitación	-8.28978
▁used	-8.29424
res	-8.29556
▁feel	-8.29948
▁please	-8.30032
▁everything	-8.30198
▁pasado	-8.30231
▁buen	-8.30595
▁ever	-8.31188
▁escuela	-8.31227
c	-8.31292
▁así	-8.31323
ble	-8.3147
▁doctor	-8.31563
▁doing	-8.31759
er	-8.31909
▁away	-8.31929
▁children	-8.32058
▁quieres	-8.32309
▁friend	-8.32556
▁Debería	-8.32759
▁dónde	-8.33029
▁Pens	-8.33226
▁wants	-8.33287
Cuánto	-8.33756
▁nadie	-8.33952
▁gave	-8.3418
▁ask	-8.34294
▁quién	-8.346
▁late	-8.34855
▁soon	-8.35518
▁mundo	-8.35669
▁Necesit	-8.35789
▁cosas	-8.358
▁1	-8.36411
▁ayuda	-8.36434
▁sure	-8.36944
▁happened	-8.37063
▁their	-8.3739
▁amigos	-8.37417
que	-8.37418
▁bus	-8.37755
▁lost	-8.38799
▁remember	-8.38829
▁call	-8.39038
▁voy	-8.3941
▁feliz	-8.39862
▁fuera	-8.40248
▁niños	-8.40387
▁saber	-8.40889
▁difícil	-8.40919
▁veces	-8.40997
▁año	-8.41097
Cuán	-8.41153
▁why	-8.41224
á	-8.41316
▁hacerlo	-8.41376
▁auto	-8.41638
▁already	-8.41683
▁cómo	-8.41816
ndo	-8.425
▁year	-8.43017
▁let	-8.43495
▁allí	-8.43629
▁boy	-8.43685
▁teacher	-8.43911
▁week	-8.43922
▁niño	-8.4393
▁enough	-8.44014
▁otro	-8.44166
ar	-8.44218
▁alone	-8.44256
▁mal	-8.44464
▁soy	-8.4503
▁heard	-8.45364
▁married	-8.45665
▁comprar	-8.45849
▁menos	-8.46239
▁puedes	-8.46363
▁sabía	-8.4642
."	-8.46462
▁tienes	-8.46546
▁wrong	-8.46866
▁best	-8.47068
▁dio	-8.47477
▁agua	-8.47584
▁amigo	-8.47589
▁found	-8.47596
as	-8.47629
▁busy	-8.47685
▁buena	-8.47738
▁bad	-8.47777
▁comida	-8.48083
cause	-8.48307
▁seguro	-8.48311
▁beautiful	-8.48328
í	-8.48416
▁bed	-8.48517
▁sea	-8.48748
▁hear	-8.49108
en	-8.49112
▁Tu	-8.49311
▁water	-8.49321
▁often	-8.49635
▁may	-8.50344
0	-8.50381
▁ayer	-8.50568
▁visto	-8.50813
▁Voy	-8.50822
▁looking	-8.51014
ía	-8.51219
▁pronto	-8.51824
▁cold	-8.51846
▁ciudad	-8.52002
▁same	-8.52079
▁thing	-8.52165
Tiene	-8.52336
▁party	-8.52728
▁conmigo	-8.52846
▁podría	-8.52871
▁train	-8.5291
ado	-8.52994
▁done	-8.53145
▁después	-8.53885
▁without	-8.53887
ra	-8.54097
ba	-8.5412
▁desde	-8.54672
▁nombre	-8.54769
▁brother	-8.54791
▁Would	-8.54932
▁persona	-8.55147
▁food	-8.55447
▁nosotros	-8.55466
▁fiesta	-8.5571
▁show	-8.56591
▁turn	-8.56693
▁looks	-8.568
▁person	-8.56802
Pued	-8.56843
▁Puede	-8.57283
▁podía	-8.57308
▁gran	-8.57372
▁tus	-8.57375
▁Sol	-8.57539
▁knew	-8.57577
▁seen	-8.5772
▁hermano	-8.57773
▁big	-8.58111
▁tren	-8.58323
▁stop	-8.58386
▁vino	-8.58414
▁use	-8.58568
▁things	-8.58569
▁café	-8.5866
▁personas	-8.59076
▁Your	-8.59092
▁ahí	-8.59363
▁De	-8.5937
▁tener	-8.59922
▁tired	-8.60041
▁May	-8.60077
▁Australia	-8.60583
▁Nadie	-8.60588
▁hope	-8.60655
▁alguien	-8.60725
▁dice	-8.61209
▁habla	-8.61253
▁wish	-8.61347
▁hotel	-8.61701
▁debe	-8.61925
▁coffee	-8.61979
▁casi	-8.62544
▁contigo	-8.62544
▁suficiente	-8.62544
▁lugar	-8.62827
▁haciendo	-8.62829
▁letter	-8.62855
▁true	-8.62927
▁carta	-8.63012
Me	-8.63187
▁answer	-8.63252
▁Cuan	-8.64227
▁around	-8.6457
▁keep	-8.64597
▁Japan	-8.64831
▁hospital	-8.64833
▁being	-8.65247
▁drink	-8.65364
▁profesor	-8.65475
▁girl	-8.65497
▁Japón	-8.65705
▁cama	-8.65706
▁learn	-8.66038
▁acerca	-8.66291
▁clase	-8.66389
▁yet	-8.66597
▁Ahora	-8.66607
Es	-8.66722
▁momento	-8.67445
▁cuenta	-8.67472
▁while	-8.67472
Quiere	-8.67652
▁salir	-8.67776
▁tomar	-8.67836
la	-8.67839
▁All	-8.67938
▁knows	-8.67988
▁Debe	-8.68191
▁open	-8.68234
ún	-8.68353
tuvo	-8.68474
▁ten	-8.6897
an	-8.69179
ron	-8.69307
ando	-8.69411
▁tanto	-8.6946
▁toda	-8.69697
▁Estaba	-8.69705
▁grande	-8.69753
urante	-8.69778
enemos	-8.69845
▁ni	-8.69884
▁kind	-8.70033
▁own	-8.70095
▁sleep	-8.70214
▁even	-8.70967
ther	-8.71072
▁died	-8.71272
▁likes	-8.71334
▁Esper	-8.71378
▁books	-8.71779
▁place	-8.7191
▁mind	-8.72107
▁pay	-8.72244
▁W	-8.72258
▁libros	-8.72259
▁leer	-8.72294
▁vas	-8.72307
▁once	-8.7248
▁try	-8.73194
▁Fue	-8.73314
▁care	-8.73616
▁wait	-8.73964
▁todas	-8.73974
most	-8.74411
▁study	-8.74432
▁watch	-8.74541
▁sister	-8.74825
▁policía	-8.74872
▁truth	-8.74872
Estás	-8.74899
g	-8.75107
▁days	-8.75395
▁hermana	-8.75474
emos	-8.75501
▁Hoy	-8.75528
▁diez	-8.75839
amos	-8.75856
▁Parece	-8.75857
▁cerca	-8.75987
▁these	-8.76289
▁another	-8.76485
▁bueno	-8.76535
▁happen	-8.76547
▁talking	-8.76754
odavía	-8.76806
▁rápido	-8.7681
▁parents	-8.76846
▁creo	-8.76864
▁lunch	-8.77137
▁seems	-8.77217
▁ellos	-8.77254
▁Monday	-8.77465
▁teléfono	-8.77465
▁world	-8.77465
▁hijo	-8.7748
▁young	-8.77519
▁ago	-8.77626
▁Tú	-8.77629
u	-8.77668
▁Esa	-8.77929
▁looked	-8.78043
ada	-8.78075
▁lunes	-8.78124
▁todavía	-8.78129
cada	-8.78442
▁family	-8.78455
▁TV	-8.78458
▁walk	-8.78538
▁historia	-8.79138
▁pasó	-8.79147
▁getting	-8.79162
▁familia	-8.79504
os	-8.79694
▁tried	-8.79791
ré	-8.79826
▁problemas	-8.80067
▁afraid	-8.80127
De	-8.80347
▁early	-8.80473
▁realmente	-8.8048
▁padres	-8.80573
▁hate	-8.80677
▁eres	-8.80822
▁sido	-8.80825
Puedes	-8.80955
▁mujer	-8.81411
ste	-8.81487
▁pudo	-8.81494
▁few	-8.81837
▁cat	-8.8197
al	-8.82402
▁rain	-8.8244
▁acuerdo	-8.82862
▁joven	-8.82862
Ha	-8.82869
▁difficult	-8.82899
▁anyone	-8.82961
▁together	-8.8322
▁Come	-8.83226
▁mine	-8.83318
▁cosa	-8.83347
▁vivir	-8.83403
▁great	-8.83911
▁trabajar	-8.84205
▁venir	-8.84264
▁gustan	-8.8441
▁vi	-8.84462
▁usual	-8.84586
▁mayor	-8.84877
▁entre	-8.84915
▁muchas	-8.85047
▁horas	-8.85101
▁D	-8.85135
▁child	-8.85316
▁puso	-8.85333
▁vive	-8.85445
p	-8.85504
▁else	-8.85631
▁each	-8.86034
▁wife	-8.8604
▁angry	-8.8675
▁country	-8.86751
▁encontrar	-8.87105
▁dejó	-8.87163
da	-8.87172
▁coming	-8.87849
▁question	-8.88079
▁meeting	-8.88314
gún	-8.8844
▁jugar	-8.88539
iempre	-8.88558
▁favorite	-8.88573
i	-8.88755
▁hurt	-8.88819
▁re	-8.88826
▁siento	-8.89307
▁accidente	-8.89663
▁himself	-8.89675
▁yourself	-8.89675
no	-8.89759
▁Does	-8.90328
▁mano	-8.90661
▁ocupado	-8.90705
▁nuestro	-8.90707
▁hours	-8.90945
▁visit	-8.90967
▁nuestra	-8.91079
▁pregunta	-8.91182
▁mesa	-8.91301
▁parte	-8.91589
▁dejar	-8.91922
▁met	-8.92061
▁matter	-8.92234
▁gato	-8.92253
▁murió	-8.92307
▁llegar	-8.92382
▁P	-8.92398
▁dinner	-8.92689
▁aprender	-8.92789
▁donde	-8.92832
▁phone	-8.92914
▁pasar	-8.92931
▁cinco	-8.93072
▁table	-8.93077
▁temprano	-8.9308
▁ayudar	-8.93137
▁televisión	-8.93456
▁menudo	-8.9347
▁ra	-8.93479
▁wouldn	-8.93786
?"	-8.93798
▁might	-8.93843
▁nadar	-8.93883
▁hand	-8.93969
▁piano	-8.9423
▁bastante	-8.9423
▁accident	-8.94487
▁les	-8.95177
▁meet	-8.95335
▁última	-8.95372
▁easy	-8.95402
▁month	-8.95405
▁fácil	-8.95686
b	-8.95699
▁far	-8.95827
▁playing	-8.96065
▁volver	-8.96203
▁estaban	-8.96579
▁necesita	-8.96707
▁police	-8.96981
▁swim	-8.96986
▁trouble	-8.96986
▁dormir	-8.96987
▁también	-8.96987
▁haven	-8.97169
ever	-8.97193
▁most	-8.97266
▁write	-8.97312
▁Japanese	-8.97389
▁camino	-8.97406
▁five	-8.97433
▁estudiar	-8.97492
▁viene	-8.97727
ro	-8.9803
▁reading	-8.98056
▁Tell	-8.98358
ould	-8.98437
Has	-8.9892
▁pidió	-8.99002
▁drive	-8.9938
nos	-8.99397
▁under	-8.99498
▁waiting	-8.99565
▁Her	-9.00065
▁Al	-9.00212
▁eating	-9.0023
▁says	-9.00265
▁lives	-9.0037
▁trying	-9.00389
▁nice	-9.00567
▁Be	-9.01018
▁minutos	-9.01079
▁finished	-9.01174
▁called	-9.01437
▁decided	-9.01544
▁cansado	-9.01585
▁Ou	-9.01715
▁dicho	-9.01896
▁dar	-9.0197
▁such	-9.01993
▁started	-9.02026
▁office	-9.02232
▁fun	-9.02341
▁estación	-9.02366
▁minutes	-9.02384
▁fire	-9.02586
▁wonder	-9.02611
▁dije	-9.0268
▁razón	-9.02737
▁fuerte	-9.02832
▁tienen	-9.0314
▁error	-9.03939
▁sola	-9.04003
▁miedo	-9.04025
▁Ayer	-9.04036
▁Una	-9.0414
▁story	-9.04443
▁important	-9.04687
▁start	-9.047
Está	-9.04714
▁myself	-9.04874
th	-9.04884
▁window	-9.05067
verdad	-9.05232
▁tonight	-9.05308
▁preguntó	-9.05311
▁fin	-9.05385
▁tipo	-9.05514
▁ran	-9.05523
▁ready	-9.05604
▁país	-9.05666
▁alto	-9.05719
▁colegio	-9.05742
▁felt	-9.05742
▁small	-9.06153
▁woman	-9.06178
▁Will	-9.06204
▁importante	-9.06512
▁station	-9.06618
▁park	-9.0662
be	-9.06627
▁lado	-9.06712
▁vio	-9.06752
lguien	-9.06831
▁ate	-9.06997
▁sí	-9.0708
▁arrived	-9.07143
▁ventana	-9.073
▁frío	-9.075
▁radio	-9.075
▁importa	-9.07501
Sabes	-9.07682
▁da	-9.07962
▁shoes	-9.08136
▁haya	-9.08274
▁someone	-9.08398
▁sick	-9.08412
▁students	-9.08509
▁zapatos	-9.08925
▁change	-9.08941
0.	-9.09572
▁punto	-9.09742
▁hot	-9.09834
▁película	-9.10514
▁word	-9.10584
▁fast	-9.10599
▁hablando	-9.10711
▁working	-9.10773
▁since	-9.10901
▁media	-9.10983
▁música	-9.11112
▁oficina	-9.11112
▁pretty	-9.11112
ate	-9.11147
▁hijos	-9.11552
▁anymore	-9.11573
▁city	-9.11574
having	-9.11575
▁sorry	-9.11581
aron	-9.11809
▁reloj	-9.12036
▁goes	-9.12075
▁movie	-9.12404
▁esperar	-9.1277
▁cabeza	-9.12969
▁han	-9.13121
▁gone	-9.13136
▁music	-9.13178
▁both	-9.13339
co	-9.13389
▁Nobody	-9.13438
▁homework	-9.13438
▁hubiera	-9.13438
▁Everyone	-9.13438
▁town	-9.13449
▁red	-9.13727
▁estudiantes	-9.14272
▁mistake	-9.14311
▁broke	-9.1438
▁mientra	-9.14501
▁ido	-9.1462
▁picture	-9.14805
▁lleva	-9.1485
▁rich	-9.14873
▁spend	-9.15278
▁bicicleta	-9.15338
▁compró	-9.15338
▁contra	-9.15486
▁b	-9.15696
▁único	-9.15819
▁Christmas	-9.15819
▁large	-9.1582
▁reunión	-9.1585
▁tennis	-9.16302
▁Nos	-9.16436
▁creer	-9.1658
▁game	-9.16766
▁those	-9.1679
▁juntos	-9.16928
▁eyes	-9.17052
▁anoche	-9.17275
▁esperando	-9.17287
▁face	-9.17596
to	-9.17649
▁high	-9.1774
▁near	-9.17759
▁baby	-9.17765
▁caja	-9.17766
▁cake	-9.17768
▁ojos	-9.17809
▁present	-9.17849
▁primera	-9.17868
▁mucha	-9.18016
00	-9.18017
▁di	-9.1807
▁dream	-9.18137
▁class	-9.1819
▁estamos	-9.18268
▁tenemos	-9.18293
▁needs	-9.18418
▁edad	-9.18484
▁ve	-9.18528
▁Just	-9.18753
▁afternoon	-9.18753
▁misma	-9.1877
▁seis	-9.1879
▁nueva	-9.19232
▁tenis	-9.19254
▁sólo	-9.1926
▁quite	-9.194
▁run	-9.19619
▁Vi	-9.19742
▁hice	-9.19752
▁esposa	-9.19757
▁Some	-9.1995
de	-9.19994
▁stupid	-9.20249
▁podemos	-9.20253
▁language	-9.20306
ce	-9.20619
▁six	-9.20781
▁song	-9.20951
▁breakfast	-9.21266
▁Take	-9.21293
▁viejo	-9.21324
▁queda	-9.21342
▁sueño	-9.21349
aba	-9.21585
▁number	-9.21778
▁Era	-9.22061
ri	-9.22263
▁llegó	-9.22305
▁hair	-9.22365
▁escribir	-9.228
▁río	-9.22804
▁China	-9.22804
▁enjoy	-9.22806
▁buscando	-9.22808
▁Estado	-9.22844
▁Fui	-9.23053
▁ganas	-9.23384
▁canción	-9.23479
▁advice	-9.23843
▁tienda	-9.23843
▁verano	-9.23844
▁against	-9.23903
▁Pu	-9.24188
▁estuvo	-9.24268
▁perder	-9.24373
▁interesting	-9.24388
▁oído	-9.24389
▁chico	-9.24508
▁fueron	-9.24518
ás	-9.24696
▁Get	-9.24893
▁caught	-9.24893
▁Son	-9.24967
▁pueda	-9.2504
▁Pued	-9.25221
▁aún	-9.25234
▁free	-9.25259
▁taxi	-9.25422
▁forget	-9.25453
▁Unidos	-9.25512
▁palabra	-9.25589
▁verte	-9.25712
▁cree	-9.25748
hich	-9.26093
▁bajo	-9.26202
▁finish	-9.26359
▁lived	-9.26511
▁fell	-9.26517
▁deberías	-9.26763
▁conducir	-9.27026
▁número	-9.27167
▁médico	-9.27567
▁river	-9.27567
▁began	-9.27569
▁fumar	-9.27659
▁plane	-9.2769
not	-9.27726
▁pasa	-9.27824
▁through	-9.2811
▁along	-9.28189
▁kill	-9.28454
▁full	-9.28513
▁cualquier	-9.28521
▁end	-9.28587
ólo	-9.2865
▁comes	-9.28702
▁longer	-9.28763
▁studying	-9.28863
▁llave	-9.28892
▁será	-9.29184
▁avión	-9.29206
▁bebé	-9.29206
▁manera	-9.29223
▁dolor	-9.29241
▁age	-9.2938
▁respuesta	-9.29434
▁sol	-9.29693
▁calle	-9.29738
▁milk	-9.29769
▁aren	-9.2992
▁leche	-9.30306
▁cuarto	-9.30326
ca	-9.30451
▁chica	-9.30581
▁pensar	-9.30659
▁box	-9.30811
▁weather	-9.30873
▁necesito	-9.30883
▁secret	-9.3101
▁part	-9.31093
▁interesante	-9.31103
▁short	-9.31341
▁pelo	-9.31401
▁dólares	-9.3144
▁ning	-9.31627
▁Giv	-9.31765
▁oír	-9.3198
▁autobús	-9.32
▁perdido	-9.32
▁quien	-9.32001
▁Aquí	-9.32032
▁times	-9.3209
▁chance	-9.32262
▁Go	-9.32401
▁fish	-9.32452
▁libre	-9.32564
Quisiera	-9.32569
▁summer	-9.32573
▁later	-9.32831
▁pie	-9.33019
▁lejos	-9.33141
▁light	-9.33416
▁hour	-9.33484
▁cara	-9.33508
▁kept	-9.33714
▁snow	-9.3403
▁encanta	-9.34075
▁mean	-9.34163
▁America	-9.34306
▁solía	-9.34316
▁camera	-9.34357
▁older	-9.34399
▁terminar	-9.34846
▁cámara	-9.34874
▁cierto	-9.3492
in	-9.34945
▁watching	-9.35093
▁bit	-9.35192
▁Deja	-9.3562
▁cost	-9.35698
▁Gracias	-9.36075
▁usar	-9.36191
Le	-9.3654
▁dark	-9.36621
▁ropa	-9.36638
▁salió	-9.36641
▁capaz	-9.36707
sotros	-9.36771
▁thinking	-9.36898
▁Para	-9.36946
▁mío	-9.36971
▁tree	-9.37055
▁entender	-9.37072
▁haga	-9.37103
▁To	-9.3722
▁death	-9.37236
▁quedó	-9.37264
▁killed	-9.37379
▁par	-9.37392
▁esté	-9.37453
▁student	-9.37675
▁iba	-9.37763
▁parque	-9.37856
▁makes	-9.38123
til	-9.38305
▁enfermo	-9.38435
▁cut	-9.38802
▁e	-9.38947
▁guerra	-9.39041
▁pueden	-9.39113
▁algunos	-9.39278
▁hija	-9.39473
▁Keep	-9.39651
▁living	-9.39651
▁spoke	-9.39651
▁became	-9.39651
▁sat	-9.39652
▁die	-9.3967
▁moment	-9.39708
▁daughter	-9.40094
▁regalo	-9.40146
ir	-9.40224
▁surprised	-9.40354
▁seem	-9.40397
▁hands	-9.40714
▁bicycle	-9.40882
▁forma	-9.41109
▁loves	-9.41222
▁computer	-9.41377
▁forgot	-9.41501
▁store	-9.41503
▁hungry	-9.41503
▁York	-9.4151
▁everyone	-9.4151
▁Many	-9.41545
▁falta	-9.41881
▁street	-9.41988
▁Tokyo	-9.42128
▁muerte	-9.42128
▁born	-9.42128
▁Everybody	-9.42129
▁viaje	-9.42175
▁rest	-9.42176
▁dollars	-9.42334
▁tocar	-9.425
▁juego	-9.4264
▁listo	-9.42683
▁become	-9.42757
▁largo	-9.42757
▁stopped	-9.42764
alá	-9.42787
▁clean	-9.43105
▁culpa	-9.43208
▁llevar	-9.43249
▁close	-9.43306
▁Navidad	-9.43389
▁company	-9.43389
▁glad	-9.43389
▁Stop	-9.43389
▁luz	-9.43403
▁preguntas	-9.43437
▁ningun	-9.43549
▁questions	-9.43621
▁manos	-9.43669
until	-9.43843
▁vacaciones	-9.44027
▁smoking	-9.44041
▁wine	-9.44167
▁listen	-9.44336
▁trust	-9.44535
▁consejo	-9.4461
▁pequeño	-9.44626
▁realidad	-9.44672
▁Había	-9.44689
▁Oj	-9.44709
▁real	-9.44775
▁duro	-9.45132
▁terrible	-9.45281
▁posible	-9.45312
▁spent	-9.45312
▁conozco	-9.45314
▁calor	-9.45317
▁vaya	-9.45318
▁travel	-9.45841
▁war	-9.45888
▁careful	-9.45904
▁hambre	-9.45962
ieron	-9.45999
▁miss	-9.4619
▁cena	-9.46242
▁secreto	-9.46433
▁mak	-9.46529
▁sit	-9.46655
▁beber	-9.46758
taking	-9.46877
▁ustedes	-9.46898
▁cocina	-9.47251
▁vuelta	-9.4726
▁niña	-9.47264
▁birthday	-9.47274
▁drunk	-9.47274
▁pregunto	-9.47294
▁dur	-9.47468
▁entrar	-9.47472
us	-9.47717
▁lie	-9.47729
▁dead	-9.47892
▁Tokio	-9.47936
▁banco	-9.47936
▁parecía	-9.47941
▁white	-9.47944
▁Usted	-9.48135
▁As	-9.4821
▁trabaja	-9.4846
▁perdió	-9.48603
▁pude	-9.48604
▁hit	-9.48738
▁10	-9.48954
▁news	-9.48963
▁estos	-9.49049
▁malo	-9.49239
▁oportunidad	-9.49273
▁building	-9.49296
▁quit	-9.49667
▁Hace	-9.4972
▁stand	-9.49841
▁tea	-9.49894
▁flores	-9.49974
▁rico	-9.49988
▁Vamos	-9.50089
clock	-9.50116
▁acá	-9.50148
▁visitar	-9.50289
▁saying	-9.50619
▁behind	-9.50629
▁cumpleaños	-9.50629
▁equipo	-9.50645
▁siquiera	-9.50649
▁Look	-9.5084
▁Nuestro	-9.51314
▁aconsej	-9.51314
▁cerveza	-9.51314
▁which	-9.51317
▁clothes	-9.51321
▁terminado	-9.51341
▁fui	-9.51862
▁ruido	-9.51932
▁touch	-9.51978
▁suerte	-9.52004
▁vos	-9.52008
▁foto	-9.5212
ción	-9.52242
▁veo	-9.52688
▁cuidado	-9.527
▁tío	-9.52723
▁vamos	-9.5273
▁prefer	-9.52763
▁novia	-9.52775
▁cantar	-9.5288
▁té	-9.52948
Tom	-9.53075
▁beer	-9.53143
▁japonés	-9.53398
▁trip	-9.53417
▁pagar	-9.53418
▁flowers	-9.53419
▁puesto	-9.53462
▁Canadian	-9.53505
▁hagas	-9.53599
▁advise	-9.53618
▁p	-9.53655
▁tal	-9.53841
ween	-9.54102
▁One	-9.54203
▁key	-9.54262
▁estudiante	-9.54272
▁final	-9.54738
▁compañía	-9.54811
▁próximo	-9.54811
▁wrote	-9.5482
▁eaten	-9.54937
▁extraño	-9.54946
▁head	-9.54954
ur	-9.55033
▁haci	-9.55088
▁hombres	-9.55101
▁helped	-9.55299
▁crees	-9.55314
▁árbol	-9.5545
▁bank	-9.55527
▁expensive	-9.55527
▁possible	-9.55537
▁volvió	-9.55582
▁whe	-9.55587
▁lengua	-9.55701
ic	-9.55782
▁changed	-9.55789
▁stayed	-9.56015
▁girlfriend	-9.56245
▁equivocado	-9.56254
▁pensando	-9.5626
▁wearing	-9.56345
▁sing	-9.56451
▁team	-9.56515
▁nieve	-9.5697
▁cuánto	-9.56971
▁reason	-9.57152
▁asunto	-9.57159
▁tarea	-9.57168
▁Sunday	-9.57174
▁perros	-9.57281
▁pan	-9.57293
▁dress	-9.57489
▁Has	-9.57689
▁business	-9.57695
▁hiciste	-9.57699
▁vestido	-9.57699
▁allá	-9.58013
▁primero	-9.58179
▁others	-9.58208
I	-9.58448
▁point	-9.58456
▁uncle	-9.58504
▁sabes	-9.58624
▁color	-9.58887
▁palabras	-9.58942
▁blame	-9.59042
▁break	-9.59052
▁golf	-9.59171
▁bag	-9.59176
▁bring	-9.59176
▁outside	-9.59205
▁order	-9.59294
▁agree	-9.59752
▁quieras	-9.59778
▁conoce	-9.59793
▁salud	-9.60483
▁catch	-9.6057
▁works	-9.606
▁única	-9.60674
▁cuatro	-9.60674
▁noise	-9.60683
▁cuándo	-9.60687
▁tall	-9.60856
▁canadiense	-9.60957
▁extranjero	-9.60962
rá	-9.6113
▁acaba	-9.6116
▁pain	-9.61184
▁strange	-9.61342
▁lose	-9.61372
▁diccionario	-9.61431
▁popular	-9.6144
▁bet	-9.61445
▁mujeres	-9.61598
▁otros	-9.61674
▁paper	-9.61718
▁van	-9.61724
▁Com	-9.61736
▁worked	-9.61737
▁B	-9.6174
▁escuchar	-9.61771
▁heart	-9.62051
▁speaking	-9.62139
▁famous	-9.62195
▁examen	-9.62206
▁lista	-9.62289
▁speaks	-9.62308
▁whole	-9.62428
▁f	-9.62607
▁cook	-9.6272
▁piensa	-9.62832
▁black	-9.62963
▁asleep	-9.62964
▁blanco	-9.62964
▁edificio	-9.62964
▁herself	-9.62964
▁decidió	-9.62965
▁abogado	-9.62974
▁vista	-9.62976
▁Déjame	-9.63006
▁amor	-9.63124
▁pequeña	-9.63264
▁cup	-9.63293
▁restaurant	-9.63416
▁needed	-9.63632
▁último	-9.63739
▁llover	-9.64497
▁biblioteca	-9.6452
▁running	-9.64521
▁taza	-9.64522
▁glasses	-9.64587
▁fuego	-9.64608
tomó	-9.64668
▁ice	-9.64722
▁win	-9.64944
▁conseguir	-9.64965
▁poder	-9.65307
▁camisa	-9.65308
▁decisión	-9.65308
▁floor	-9.65308
▁hurry	-9.65308
▁proud	-9.65309
▁dangerous	-9.65309
▁vendrá	-9.65311
▁favorito	-9.65349
▁carne	-9.65388
able	-9.65583
▁restaurante	-9.65637
▁sound	-9.65747
▁follow	-9.65968
▁strong	-9.66008
▁Someone	-9.66104
▁quickly	-9.66117
▁paid	-9.66121
go	-9.66122
▁tenido	-9.66145
▁montón	-9.66145
▁esperaba	-9.66154
▁gets	-9.66269
ne	-9.66329
▁raining	-9.66378
▁side	-9.66389
▁caminar	-9.66531
ga	-9.66553
▁cambiar	-9.66577
▁different	-9.66835
▁dictionary	-9.66901
▁sombrero	-9.66901
▁éxito	-9.66901
▁least	-9.66908
▁library	-9.66921
▁trabajando	-9.66941
▁sería	-9.66973
Podrías	-9.67002
▁sell	-9.67055
▁llama	-9.67118
▁Deb	-9.67134
ci	-9.67225
▁offer	-9.67321
▁Ven	-9.67328
▁crazy	-9.67708
▁fútbol	-9.67708
▁jardín	-9.67708
▁lluvia	-9.67708
▁baseball	-9.67708
▁dormido	-9.67708
▁exactly	-9.67715
▁shirt	-9.67768
▁poner	-9.67789
▁entiendo	-9.6781
Va	-9.68036
▁vivo	-9.68132
▁mala	-9.68291
▁telephone	-9.68347
▁worry	-9.68399
▁sale	-9.68455
▁pens	-9.68513
▁empezó	-9.68521
▁dentro	-9.68522
▁abuelo	-9.68527
▁interested	-9.68558
▁loved	-9.68709
est	-9.68739
▁four	-9.69002
▁justo	-9.69125
▁club	-9.6934
▁waited	-9.69687
▁caso	-9.69702
▁muerto	-9.6983
▁safe	-9.70098
▁poor	-9.70101
▁garden	-9.7014
▁sitio	-9.70172
▁Dame	-9.7019
▁gatos	-9.70288
▁primer	-9.70292
▁weight	-9.70306
▁decirle	-9.70362
▁Ve	-9.70362
▁anybody	-9.70378
▁sent	-9.70561
▁played	-9.70798
▁thank	-9.70843
▁cenar	-9.70892
▁front	-9.70998
▁lawyer	-9.71
▁choice	-9.71001
▁concert	-9.71001
▁exactamente	-9.71003
▁dogs	-9.7101
▁sentido	-9.7102
▁errores	-9.71147
ting	-9.71327
▁inteligente	-9.71531
▁explain	-9.71707
▁treinta	-9.7184
▁sad	-9.71847
▁"¿	-9.7185
▁frente	-9.7185
▁leyendo	-9.71859
▁baño	-9.71863
▁concierto	-9.71874
▁loco	-9.72045
▁ganar	-9.7224
nd	-9.72431
▁arrive	-9.72523
▁cry	-9.72569
k	-9.72575
▁alrededor	-9.72668
▁encontró	-9.72688
▁estúpido	-9.72688
▁atención	-9.72688
▁peor	-9.72694
▁guitarra	-9.72707
▁Mañana	-9.72734
▁thirty	-9.72755
tion	-9.72769
ited	-9.72893
▁mad	-9.7307
En	-9.73094
▁Now	-9.73106
▁Ni	-9.73339
▁estará	-9.73397
▁return	-9.73409
▁probabl	-9.73417
▁eran	-9.73419
▁llamar	-9.73471
"	-9.73472
▁patient	-9.73476
▁guitar	-9.73524
▁béisbol	-9.73543
▁broken	-9.73549
▁barco	-9.73551
rought	-9.73598
▁case	-9.73599
▁pasando	-9.73601
▁llorar	-9.73612
▁mistakes	-9.73653
▁pass	-9.73945
▁deal	-9.74008
▁seguir	-9.74115
▁move	-9.74132
▁takes	-9.74146
nte	-9.74189
▁Bo	-9.74232
▁problems	-9.74255
▁wear	-9.74366
▁umbrella	-9.74405
▁jugando	-9.74411
▁siete	-9.74418
▁seemed	-9.74598
▁mar	-9.74669
▁evening	-9.74742
▁walked	-9.74753
na	-9.74774
▁opened	-9.74791
▁aire	-9.74833
▁thinks	-9.75005
▁Thank	-9.75084
▁peligro	-9.75241
▁paraguas	-9.75274
▁Odi	-9.75275
▁estudiando	-9.75288
▁hide	-9.7533
▁lucky	-9.75406
Cuánta	-9.75485
▁smoke	-9.75772
▁Piens	-9.7578
▁clases	-9.75857
▁glass	-9.76077
▁hat	-9.76119
▁air	-9.76148
▁dirección	-9.76151
▁road	-9.76151
▁television	-9.76151
▁Casi	-9.76152
▁certain	-9.76152
▁peso	-9.76157
▁pasada	-9.76191
hose	-9.76328
▁words	-9.76406
▁result	-9.76542
▁realize	-9.76688
▁cuanto	-9.76783
▁pedir	-9.76934
or	-9.76951
▁People	-9.77036
▁seven	-9.77069
Puede	-9.77091
▁animales	-9.77094
▁missed	-9.77253
▁Mis	-9.77417
▁mía	-9.77584
▁expect	-9.77675
▁accept	-9.77788
▁talked	-9.77857
▁quieren	-9.77901
▁encontré	-9.77929
▁cayó	-9.77929
▁husband	-9.77936
remos	-9.78015
▁sometimes	-9.78172
h	-9.78183
▁test	-9.78364
▁health	-9.78544
▁minute	-9.78714
▁triste	-9.78828
▁Everything	-9.7883
▁New	-9.7883
Queré	-9.78833
▁peligroso	-9.78841
▁almuerzo	-9.78876
▁movies	-9.79019
▁feeling	-9.79203
Cree	-9.79217
▁espera	-9.79239
▁learned	-9.79243
▁empezar	-9.7932
▁Necesita	-9.7943
aste	-9.79455
▁pen	-9.79489
▁On	-9.79558
id	-9.79563
▁haría	-9.79694
▁comió	-9.79741
▁deberes	-9.79854
▁F	-9.79986
▁clear	-9.80593
▁situación	-9.80657
▁OK	-9.80657
▁lying	-9.80664
▁causa	-9.80697
▁miró	-9.80736
▁Realmente	-9.80812
▁responder	-9.8082
sta	-9.80822
▁driver	-9.80856
▁fine	-9.81307
▁pick	-9.81474
▁attention	-9.81583
▁llamó	-9.81583
▁weekend	-9.81583
▁figure	-9.81584
▁forward	-9.81617
▁rato	-9.81618
▁Quería	-9.81631
▁ship	-9.81685
▁severa	-9.8171
▁Ten	-9.82318
▁completamente	-9.82522
▁piensas	-9.83028
▁dance	-9.83221
▁playa	-9.83447
▁danger	-9.83459
▁opinión	-9.83461
▁situation	-9.83461
▁rompió	-9.83461
▁twice	-9.83461
▁swimming	-9.83462
▁Paris	-9.83465
▁siendo	-9.83489
▁medio	-9.83567
▁crying	-9.83595
▁sala	-9.83623
▁rules	-9.83694
▁visited	-9.83798
▁irme	-9.84218
▁decision	-9.8422
▁men	-9.84298
▁hermosa	-9.84308
▁necesitas	-9.84352
ake	-9.84369
▁minuto	-9.84371
▁pudiera	-9.84413
▁guess	-9.84413
▁second	-9.84414
▁vacation	-9.84414
▁entró	-9.84416
▁dijiste	-9.84417
▁half	-9.84431
▁feed	-9.84459
▁Tenía	-9.84473
▁invited	-9.84522
▁meat	-9.84553
▁Sus	-9.846
▁contar	-9.85048
▁arm	-9.8527
▁opinion	-9.85297
▁normal	-9.85311
▁apple	-9.85348
▁After	-9.85374
▁hiciera	-9.85374
▁París	-9.85375
▁imposible	-9.85375
▁boca	-9.85375
▁invierno	-9.85375
▁resolver	-9.85377
▁Even	-9.85378
▁lago	-9.85391
▁desk	-9.85401
▁tenga	-9.85409
▁alive	-9.85459
▁finally	-9.85463
▁lleno	-9.85521
less	-9.85539
Er	-9.8554
▁Compré	-9.85845
▁recordar	-9.85948
ja	-9.86301
▁pienso	-9.86345
▁habría	-9.86347
▁address	-9.86352
▁ocupada	-9.86354
▁leaving	-9.86357
▁completely	-9.86364
▁seat	-9.86368
▁universidad	-9.86388
▁solve	-9.86391
▁sal	-9.86404
▁beach	-9.86495
▁ayudarte	-9.86516
▁fishing	-9.86551
▁sentó	-9.86564
▁closed	-9.866
ación	-9.86665
▁send	-9.86826
cia	-9.86938
▁seeing	-9.87114
▁digas	-9.87171
▁simple	-9.87296
▁divertido	-9.87326
▁cuchillo	-9.87326
▁cuesta	-9.87326
▁worried	-9.87327
rank	-9.87391
▁alta	-9.87705
▁drinking	-9.87733
▁vaso	-9.87805
▁R	-9.879
▁pedí	-9.88073
▁papel	-9.88239
refiero	-9.88308
▁driving	-9.88316
▁terminó	-9.88316
▁blue	-9.88316
▁pieza	-9.88322
▁montaña	-9.88324
▁mountain	-9.8833
▁venga	-9.8833
án	-9.88336
▁grandfather	-9.88339
▁atrás	-9.88385
▁ello	-9.8843
▁Va	-9.8848
▁worth	-9.88637
w	-9.88735
▁estaría	-9.89041
▁pena	-9.89128
▁promise	-9.89162
▁known	-9.89215
▁paciente	-9.89285
▁wall	-9.89293
▁knife	-9.89316
▁próxima	-9.89316
▁message	-9.89317
▁jamás	-9.89318
▁partido	-9.89324
▁States	-9.89325
▁carro	-9.89458
▁haré	-9.89565
▁meses	-9.89619
▁sleeping	-9.89711
T	-9.90026
▁abrir	-9.9008
▁animals	-9.90169
▁Londres	-9.90326
▁aeropuerto	-9.90326
▁capital	-9.90326
▁everybody	-9.90326
▁kitchen	-9.90326
▁machine	-9.90326
▁abroad	-9.90326
▁shopping	-9.90327
▁London	-9.90327
▁share	-9.90328
▁Muchos	-9.90329
▁intentando	-9.90338
il	-9.90341
▁ticket	-9.90376
▁mayoría	-9.90384
▁younger	-9.90402
▁Mucha	-9.90416
va	-9.90423
▁amable	-9.9043
▁guy	-9.90446
▁control	-9.90461
iendo	-9.90471
▁casado	-9.91056
ch	-9.91077
ers	-9.91132
▁afuera	-9.91346
▁mensaje	-9.91346
▁voz	-9.91346
▁writing	-9.91346
▁suppose	-9.91347
▁comido	-9.91348
▁cine	-9.91349
▁venido	-9.9135
▁duele	-9.91357
▁Con	-9.91473
▁promised	-9.91516
▁mantener	-9.91639
▁salt	-9.91664
▁viven	-9.91705
ban	-9.91747
un	-9.9177
▁aquel	-9.92313
▁chocolate	-9.92377
▁women	-9.92378
▁vayas	-9.9241
▁either	-9.92493
▁Haz	-9.92687
▁morir	-9.92988
▁eggs	-9.93096
▁Sos	-9.93106
▁huevos	-9.93116
▁dejes	-9.93138
pa	-9.934
▁sentence	-9.93419
▁abrigo	-9.93427
▁hold	-9.93449
▁hiding	-9.93481
▁less	-9.93485
▁contento	-9.93533
▁begin	-9.93544
▁passed	-9.93583
▁singing	-9.93593
▁sense	-9.93601
▁llevaba	-9.93635
▁boys	-9.93806
▁matar	-9.93819
▁Mira	-9.93845
▁fight	-9.9389
▁gas	-9.9392
▁kiss	-9.94189
Lo	-9.94204
▁funciona	-9.94308
ió	-9.94369
▁llev	-9.9441
▁debo	-9.94448
▁except	-9.94454
▁airport	-9.94472
▁entonces	-9.94472
▁impossible	-9.94472
▁medicine	-9.94472
▁traffic	-9.94472
▁coat	-9.94473
▁escritorio	-9.94473
▁sitting	-9.94485
▁Leave	-9.94493
▁worse	-9.94523
ti	-9.9456
▁torta	-9.94605
▁Thanks	-9.94738
mo	-9.94768
idad	-9.94811
▁sun	-9.94877
▁doubt	-9.94973
▁diga	-9.95275
ma	-9.95354
▁manzanas	-9.95355
▁public	-9.95472
▁serious	-9.95479
▁winter	-9.95536
vi	-9.95656
▁silla	-9.95659
▁manzana	-9.95716
▁bailar	-9.95791
▁respecto	-9.95876
▁viajar	-9.95892
▁also	-9.95897
Tú	-9.96103
▁caro	-9.96227
▁foot	-9.96482
▁kids	-9.96514
espués	-9.96582
▁fault	-9.96611
▁hundred	-9.96611
▁estuviera	-9.96612
▁corriendo	-9.96612
▁Nothing	-9.96612
▁suele	-9.96619
▁abrió	-9.96706
▁comprado	-9.9673
▁bird	-9.96807
▁listening	-9.96813
▁piece	-9.96819
▁cocinar	-9.96976
▁Here	-9.97025
▁quiera	-9.97061
▁past	-9.97086
▁grandes	-9.97101
▁law	-9.97148
dónde	-9.97163
▁llaves	-9.97231
▁shut	-9.97457
▁smile	-9.97532
▁Anoche	-9.97698
▁caliente	-9.97698
▁jefe	-9.97698
▁voice	-9.97698
▁written	-9.97698
▁serio	-9.97742
▁recuerdo	-9.97855
▁tie	-9.98203
▁lake	-9.9823
▁traje	-9.98382
▁sigue	-9.98516
▁somos	-9.98627
▁clima	-9.98731
▁abierta	-9.98797
▁propia	-9.98797
▁siguiente	-9.98797
▁corazón	-9.98797
▁cielo	-9.98797
▁Nuev	-9.98798
unque	-9.98822
▁quedarme	-9.98852
▁American	-9.98991
ido	-9.99027
▁nuestros	-9.99054
▁Today	-9.9909
▁H	-9.9928
turned	-9.99295
Alguna	-9.99395
▁waste	-9.99534
ia	-9.99585
▁cause	-9.99612
▁carry	-9.99699
▁fotos	-9.99721
▁success	-9.99824
▁especial	-9.99883
▁borracho	-9.99908
▁felices	-9.99908
▁pizza	-9.99908
▁shop	-9.99909
▁Stay	-9.99909
▁liked	-9.9992
iz	-9.99944
▁pescado	-9.99993
▁piso	-10
▁expected	-10.0007
▁chair	-10.0012
▁rojo	-10.0013
▁horse	-10.0015
▁brazo	-10.0016
▁precio	-10.0018
▁Espera	-10.004
▁taken	-10.0056
▁ideas	-10.0062
▁Re	-10.0064
▁cats	-10.0072
▁surprise	-10.0087
▁irse	-10.0094
▁At	-10.0101
▁trató	-10.0103
▁ocurrió	-10.0104
▁detrás	-10.0104
▁viendo	-10.0104
▁ocho	-10.0105
▁desayuno	-10.0107
▁Sabía	-10.0111
▁Try	-10.0118
▁derecho	-10.013
mi	-10.0153
▁noticias	-10.0172
▁Francia	-10.0217
▁iglesia	-10.0217
▁join	-10.0217
▁olvidó	-10.0217
▁mirando	-10.0218
▁apples	-10.022
▁Dime	-10.0222
▁favorita	-10.0225
▁fall	-10.023
▁confiar	-10.0234
jo	-10.0239
▁queremos	-10.0245
▁per	-10.0307
▁Toda	-10.0321
▁significa	-10.0323
▁foreign	-10.0329
▁smart	-10.0329
▁Quizá	-10.0332
▁church	-10.0332
▁diciendo	-10.0332
▁sky	-10.0332
▁ball	-10.0332
▁cuál	-10.0333
▁escribió	-10.0333
▁happens	-10.0335
▁querés	-10.0339
▁Call	-10.0339
▁animal	-10.036
imos	-10.0363
▁perfect	-10.037
▁gun	-10.0371
▁warm	-10.0374
ría	-10.0377
▁correcto	-10.038
Se	-10.041
▁chicos	-10.0417
▁keys	-10.0421
iste	-10.044
▁ex	-10.0446
▁months	-10.0447
▁empleo	-10.0448
▁France	-10.0448
▁easily	-10.0448
▁regret	-10.0448
▁Osaka	-10.0448
▁tarta	-10.0448
▁boss	-10.0448
▁comiendo	-10.0448
▁shot	-10.0448
▁compré	-10.0448
▁gracias	-10.045
▁leído	-10.045
▁Alguno	-10.0452
▁refused	-10.0454
▁wash	-10.0461
▁quedar	-10.0461
▁pared	-10.0477
▁anciano	-10.0481
▁estabas	-10.0482
▁periódico	-10.0482
▁Lament	-10.0485
▁bebe	-10.0485
▁happening	-10.0491
caso	-10.0494
▁learning	-10.0496
▁correr	-10.0502
▁honest	-10.0514
▁Di	-10.0553
▁across	-10.0566
▁difference	-10.0566
▁empieza	-10.0566
▁necesario	-10.0566
▁soccer	-10.0566
▁helado	-10.0566
▁novio	-10.0566
▁bridge	-10.0568
ver	-10.057
▁carefully	-10.0577
▁ves	-10.0589
▁negro	-10.0601
▁amiga	-10.0602
▁domingo	-10.0607
▁trata	-10.0608
▁novela	-10.0619
j	-10.0623
▁quiet	-10.0624
▁reglas	-10.0631
dor	-10.0633
▁domingos	-10.0643
▁ama	-10.0647
▁count	-10.0669
▁teach	-10.0672
▁puente	-10.0685
▁enamorado	-10.0685
▁boyfriend	-10.0686
▁pueblo	-10.0687
▁dejado	-10.0691
▁pictures	-10.0698
▁inside	-10.0707
sk	-10.071
▁novel	-10.0711
▁evitar	-10.0713
▁hermanos	-10.0718
amente	-10.0722
▁walking	-10.0728
▁vale	-10.0729
▁bar	-10.0736
▁consider	-10.074
▁parar	-10.0746
▁os	-10.0749
▁cream	-10.0755
Ya	-10.0761
el	-10.0762
▁Acab	-10.0791
▁languages	-10.0792
▁hará	-10.0792
▁pase	-10.0793
▁bath	-10.0794
▁future	-10.0805
▁prisa	-10.0805
▁sacó	-10.0805
▁bread	-10.0805
▁intentó	-10.0806
▁O	-10.082
▁Nada	-10.0832
▁wor	-10.0834
▁noticia	-10.0852
▁though	-10.0853
▁sounds	-10.0863
ck	-10.0867
Con	-10.0878
▁llega	-10.088
▁gana	-10.0886
▁ven	-10.0904
▁Something	-10.0927
▁almorzar	-10.0927
▁enemy	-10.0927
▁wake	-10.0927
▁habló	-10.0928
▁pensaba	-10.0929
bo	-10.0946
▁remind	-10.0961
▁L	-10.0964
▁ride	-10.0972
▁varia	-10.0975
▁asiento	-10.0979
▁verme	-10.0982
▁verlo	-10.0983
▁Podría	-10.1009
▁girls	-10.1018
▁ill	-10.1024
▁Chinese	-10.1051
▁Wait	-10.1051
▁college	-10.1051
▁segura	-10.1051
▁enfadado	-10.1052
▁siguió	-10.1052
ted	-10.1056
▁campo	-10.1059
▁llegado	-10.106
▁For	-10.1076
▁escrito	-10.1079
▁estés	-10.1087
▁pobre	-10.11
▁Hic	-10.1107
▁Supong	-10.1109
▁Pon	-10.1124
nas	-10.1141
▁saben	-10.1142
▁German	-10.1145
pe	-10.1158
▁encontrado	-10.1176
▁somewhere	-10.1176
▁Oí	-10.1178
▁slowly	-10.1178
▁quedarse	-10.1183
▁contó	-10.1184
▁laughed	-10.1185
▁demás	-10.119
▁cooking	-10.1195
▁experience	-10.1196
▁caballo	-10.123
▁eye	-10.1234
▁estas	-10.1241
▁ayude	-10.1248
qui	-10.1248
Para	-10.1251
▁mil	-10.1267
▁escape	-10.1287
▁sign	-10.1288
▁gustaba	-10.1291
▁bolsa	-10.1302
▁couple	-10.1302
▁América	-10.1303
▁policeman	-10.1303
▁comenzó	-10.1304
▁cita	-10.1304
▁ayudó	-10.1305
▁entiende	-10.1311
bajo	-10.1314
▁line	-10.1315
▁report	-10.1319
▁necesitaba	-10.1321
▁sentía	-10.1322
▁standing	-10.1325
▁toca	-10.1328
▁stolen	-10.1336
▁llegue	-10.1345
▁propio	-10.1358
▁newspaper	-10.1358
▁price	-10.136
▁echar	-10.1379
▁fact	-10.1394
▁cartas	-10.142
▁pretend	-10.1423
▁futuro	-10.143
▁heavy	-10.143
▁lloviendo	-10.143
▁rock	-10.143
▁decide	-10.1431
▁acostumbrado	-10.1431
▁mouth	-10.1433
▁marry	-10.1435
▁pesar	-10.1435
▁failed	-10.1439
▁quedé	-10.1439
▁entered	-10.1442
ies	-10.1446
▁shower	-10.1459
▁decirme	-10.1468
▁remain	-10.1488
▁top	-10.149
▁idioma	-10.1493
▁correct	-10.1511
▁fat	-10.1512
▁seas	-10.1543
x	-10.1543
▁azúcar	-10.156
▁casó	-10.156
▁marido	-10.1561
▁necessary	-10.1563
▁veía	-10.1566
▁ayudarme	-10.158
▁pescar	-10.1591
▁aware	-10.1596
▁orgulloso	-10.162
▁Alguna	-10.1621
▁daño	-10.1621
▁larga	-10.1624
▁nació	-10.1642
▁fix	-10.1679
▁prison	-10.1689
▁experiencia	-10.1692
▁nervous	-10.1692
▁público	-10.1692
▁funny	-10.1692
▁hacía	-10.1696
▁fear	-10.1696
▁tendrá	-10.1698
▁presidente	-10.1702
▁Habla	-10.1707
▁siente	-10.1711
▁moved	-10.1717
Podría	-10.172
ong	-10.175
ad	-10.1758
▁compras	-10.176
ante	-10.1787
▁correo	-10.179
▁eight	-10.1798
▁charge	-10.1808
▁enfermedad	-10.1817
▁fly	-10.1825
▁Every	-10.1825
▁Kyoto	-10.1825
▁durmiendo	-10.1825
onozco	-10.1825
▁humor	-10.1827
▁button	-10.1828
▁co	-10.183
▁suelo	-10.1833
▁Was	-10.1835
v	-10.1835
▁bill	-10.1846
ica	-10.1848
▁dientes	-10.1848
qué	-10.1855
▁limpiar	-10.1858
▁pájaro	-10.1899
Esto	-10.1916
ut	-10.1922
▁beat	-10.1923
rse	-10.1949
▁diferencia	-10.1951
ought	-10.1956
▁green	-10.196
▁storm	-10.196
▁tormenta	-10.196
▁native	-10.196
▁lend	-10.1996
▁famoso	-10.2031
▁gift	-10.2033
▁bottle	-10.2033
▁joke	-10.2037
▁sentado	-10.2037
▁odia	-10.2065
▁guys	-10.2088
▁Br	-10.2091
▁deep	-10.2091
▁film	-10.2097
▁proyecto	-10.2097
▁twenty	-10.2097
▁Perdí	-10.2097
▁blood	-10.2097
▁thousand	-10.2097
▁wallet	-10.2097
▁zoo	-10.2097
▁general	-10.2099
▁blind	-10.21
▁wonderful	-10.2101
▁viste	-10.2104
▁Solía	-10.211
▁pensé	-10.2114
▁kissed	-10.2115
▁semanas	-10.2133
▁paseo	-10.2153
▁perfecto	-10.2155
▁brothers	-10.2167
▁diferente	-10.2177
▁clock	-10.2202
▁list	-10.2212
▁save	-10.222
▁sino	-10.2232
▁enferma	-10.2236
▁fruit	-10.2236
▁grew	-10.2236
▁stood	-10.2236
▁pintura	-10.2236
▁carrera	-10.2236
▁empty	-10.2236
▁valor	-10.2239
▁Dios	-10.2239
▁Dile	-10.2242
▁painting	-10.2247
▁sugar	-10.2249
▁contacto	-10.2267
▁owe	-10.2299
ity	-10.2307
▁conocía	-10.231
▁dado	-10.2316
▁preocupado	-10.2321
ciones	-10.2334
▁Tal	-10.2354
▁bear	-10.2359
▁sepa	-10.2362
▁azul	-10.2369
io	-10.2373
▁speech	-10.2376
▁claro	-10.2377
▁corbata	-10.2377
▁Nuestra	-10.2377
▁apena	-10.2378
▁Most	-10.2378
▁sintió	-10.2379
Desearía	-10.2382
▁agradable	-10.2383
▁received	-10.2384
▁bother	-10.2407
▁plans	-10.2417
▁decirte	-10.2428
▁Sabe	-10.2435
je	-10.2439
▁means	-10.2439
▁igual	-10.245
▁levanta	-10.245
P	-10.2456
▁exam	-10.2457
▁bonita	-10.246
▁botella	-10.2464
▁mejores	-10.2464
▁usa	-10.2477
▁herido	-10.2477
▁date	-10.2487
▁resto	-10.2501
▁borrow	-10.2506
▁discuss	-10.2507
▁Jackson	-10.252
▁abuela	-10.252
▁grupo	-10.252
▁hicieron	-10.252
▁picnic	-10.252
▁taught	-10.252
▁translate	-10.252
▁beginning	-10.252
▁esperanza	-10.252
▁check	-10.2521
▁worst	-10.2522
▁Uno	-10.2523
▁aquella	-10.2524
ran	-10.2525
▁grave	-10.2528
ord	-10.2532
▁respect	-10.2604
▁estudia	-10.261
▁smell	-10.2612
▁prueba	-10.2614
▁India	-10.2615
▁llegará	-10.2616
▁Alg	-10.2621
▁Europe	-10.2663
▁despierto	-10.2665
▁discurso	-10.2665
▁vosotros	-10.2665
▁tuviera	-10.2665
▁oferta	-10.2665
▁matemáticas	-10.2665
▁suena	-10.2666
▁planes	-10.2667
▁Writ	-10.2667
▁pelota	-10.2677
▁arma	-10.2679
▁smiled	-10.2687
▁eats	-10.2706
▁prestar	-10.2711
▁Que	-10.2715
▁watched	-10.2726
▁tras	-10.2753
▁attend	-10.2798
man	-10.2799
▁interesa	-10.2801
▁común	-10.2809
▁Saturday	-10.2812
▁veinte	-10.2812
▁negó	-10.2812
▁information	-10.2812
▁decidido	-10.2812
▁información	-10.2812
▁prometió	-10.2812
▁planning	-10.2812
▁inmediatamente	-10.2812
▁totalmente	-10.2813
▁tratando	-10.2815
▁soup	-10.2815
▁sight	-10.2821
▁Sin	-10.2828
ito	-10.2829
era	-10.2829
▁llena	-10.2846
▁toma	-10.287
▁Gi	-10.2872
▁grow	-10.2898
▁staying	-10.2903
▁intentar	-10.2908
▁yen	-10.2912
▁Tur	-10.2934
▁murder	-10.2944
▁village	-10.2961
▁Europa	-10.2961
▁built	-10.2961
▁common	-10.2961
▁levantó	-10.2961
▁luego	-10.2961
▁máquina	-10.2961
▁verdaderamente	-10.2962
▁calm	-10.2966
▁leaves	-10.2967
▁sopa	-10.2972
▁buenos	-10.2985
ped	-10.2987
▁cerrar	-10.2999
▁alegra	-10.3014
▁haberlo	-10.3017
S	-10.302
ero	-10.3024
pi	-10.3034
▁fit	-10.3044
▁cambio	-10.3061
▁tuyo	-10.3068
▁duda	-10.307
tar	-10.307
▁junto	-10.3072
▁enter	-10.3073
▁succeed	-10.3099
▁crowd	-10.3101
▁enojado	-10.3113
▁guapa	-10.3113
▁mamá	-10.3113
▁nueve	-10.3113
▁encima	-10.3113
▁roto	-10.3113
▁assume	-10.3113
▁sorprendió	-10.3113
▁poca	-10.3113
▁luna	-10.3113
▁quise	-10.3114
▁moon	-10.3115
▁darle	-10.313
▁feelings	-10.314
▁parado	-10.3153
▁volverá	-10.3156
za	-10.3174
▁post	-10.3188
▁alegr	-10.3194
▁haces	-10.3215
▁enemigo	-10.3222
▁An	-10.3261
▁soportar	-10.3263
▁silencio	-10.3266
▁anywhere	-10.3266
▁primavera	-10.3266
▁repente	-10.3266
▁studied	-10.3266
▁mintiendo	-10.3266
▁apartment	-10.3267
▁sentimientos	-10.3267
▁choose	-10.3267
▁vivía	-10.3274
▁single	-10.3274
▁tomado	-10.3278
it	-10.3278
▁type	-10.3288
▁arreglar	-10.3288
▁star	-10.3303
▁rang	-10.3308
▁actually	-10.3311
▁God	-10.3312
▁trees	-10.3313
▁amo	-10.3317
▁ley	-10.3341
por	-10.3342
▁sorprendido	-10.3376
▁ech	-10.3393
▁deserve	-10.3406
les	-10.3414
▁coger	-10.3415
▁menor	-10.3417
▁Lleva	-10.3418
▁Fuji	-10.3423
▁alemán	-10.3423
▁bolígrafo	-10.3423
▁conocido	-10.3423
▁principio	-10.3423
▁project	-10.3423
▁slept	-10.3423
▁sorpresa	-10.3423
▁llegué	-10.3423
▁botón	-10.3423
▁enseñó	-10.3424
▁teeth	-10.3425
▁guilty	-10.3425
▁podrá	-10.3426
▁quedarte	-10.3432
▁dan	-10.3438
▁rule	-10.3439
▁locked	-10.3439
▁aceptar	-10.3478
▁vario	-10.349
▁personal	-10.3491
cha	-10.3495
▁cuidar	-10.3514
▁rid	-10.3522
ment	-10.3527
▁puedas	-10.3537
▁c	-10.3539
▁verde	-10.3552
▁rey	-10.3561
▁leg	-10.3563
▁apologize	-10.3565
▁tele	-10.3566
1	-10.3575
▁bosque	-10.3581
▁museum	-10.3581
▁yellow	-10.3581
▁museo	-10.3581
▁paz	-10.3582
▁papá	-10.3582
▁earth	-10.3582
▁admit	-10.3584
▁Quere	-10.3585
▁tonto	-10.3585
▁verdadero	-10.3585
▁lentes	-10.3594
▁buenas	-10.3609
▁andar	-10.3611
▁See	-10.3625
Eso	-10.3627
▁alarm	-10.3634
▁weeks	-10.364
▁abajo	-10.3673
▁breath	-10.3681
▁visita	-10.3697
▁corta	-10.3706
ness	-10.3713
▁convince	-10.3726
▁president	-10.373
▁permitir	-10.3742
▁grandmother	-10.3743
▁satisfecho	-10.3743
▁vuelto	-10.3743
▁ganó	-10.3743
▁tampoco	-10.3743
▁cheese	-10.3743
▁fence	-10.3743
▁bike	-10.3743
▁habrá	-10.3743
▁resfriado	-10.3743
▁earlier	-10.3743
▁mitad	-10.3743
▁querría	-10.3743
▁pertenece	-10.3744
hrew	-10.3744
béis	-10.3745
▁nine	-10.3746
▁preparado	-10.3747
▁prestado	-10.3747
▁tengas	-10.3749
▁nervioso	-10.375
▁cards	-10.3752
▁player	-10.3759
▁Ape	-10.3764
▁Tan	-10.3767
vo	-10.3773
▁quitó	-10.3778
▁agreed	-10.3779
▁paso	-10.379
▁likely	-10.3794
▁olvides	-10.3816
▁ducha	-10.3834
ul	-10.3844
mb	-10.3848
▁lavar	-10.3854
▁finger	-10.3874
▁special	-10.3879
▁hacen	-10.3879
▁idiota	-10.388
ful	-10.3885
▁Children	-10.3907
▁Show	-10.3907
▁funeral	-10.3907
▁intención	-10.3907
▁jóvenes	-10.3907
▁medicina	-10.3907
▁seguridad	-10.3907
▁held	-10.3907
▁wedding	-10.3908
▁immediately	-10.3908
▁frase	-10.3908
▁extra	-10.3908
▁Tené	-10.3909
▁pair	-10.391
▁rent	-10.3915
▁forgive	-10.3919
▁pone	-10.3926
▁plays	-10.3937
▁web	-10.3942
▁hacerte	-10.3942
ke	-10.396
▁dura	-10.3963
bido	-10.3967
▁buscar	-10.3968
▁pájaros	-10.3982
▁Were	-10.3995
áis	-10.403
▁vieja	-10.4038
▁segundo	-10.4039
▁sacar	-10.4049
▁agrada	-10.4052
▁deja	-10.4059
▁Life	-10.4073
▁Somebody	-10.4073
▁despacio	-10.4073
▁incendio	-10.4073
▁ladrón	-10.4073
▁llueve	-10.4073
▁prisión	-10.4073
▁group	-10.4073
▁satisfied	-10.4073
▁Two	-10.4073
▁ahead	-10.4073
▁boat	-10.4073
▁history	-10.4073
▁rica	-10.4073
▁classroom	-10.4073
▁cerrada	-10.4074
▁escuchando	-10.4075
▁olvidado	-10.4077
▁taller	-10.4079
▁liar	-10.4079
▁culpable	-10.408
▁dijeron	-10.408
▁painted	-10.4088
▁returned	-10.4102
▁pre	-10.4114
▁películas	-10.4125
ten	-10.4127
zo	-10.4131
Estaré	-10.4165
▁hang	-10.4168
▁asking	-10.4176
C	-10.4179
Usted	-10.4192
▁drinks	-10.4201
▁computador	-10.4204
▁traer	-10.4209
▁ring	-10.4232
▁ordenador	-10.4236
xcuse	-10.4242
▁Alemania	-10.4243
▁Canadá	-10.4243
▁memoria	-10.4243
▁premio	-10.4243
▁woke	-10.4243
▁cruel	-10.4243
▁corto	-10.4244
▁diario	-10.4244
▁rápidamente	-10.4244
▁negocios	-10.4246
▁hermoso	-10.4246
▁position	-10.4247
▁decidir	-10.4249
▁paint	-10.425
▁pelea	-10.425
▁rara	-10.4252
▁allowed	-10.4256
▁Recuerd	-10.4258
▁árboles	-10.4261
ita	-10.4262
▁island	-10.4264
▁harder	-10.4265
▁Pas	-10.4266
▁picked	-10.4268
▁king	-10.4277
▁listened	-10.428
▁Les	-10.4283
▁Germany	-10.4284
ida	-10.4297
▁fired	-10.431
▁Hol	-10.4333
tor	-10.4343
▁laugh	-10.4358
▁temo	-10.4362
▁recuerda	-10.4389
▁espalda	-10.439
▁sentí	-10.4398
▁tema	-10.4409
▁queso	-10.4413
▁support	-10.4415
▁Kioto	-10.4415
▁ashamed	-10.4415
▁gustó	-10.4415
▁izquierda	-10.4415
▁línea	-10.4415
▁multitud	-10.4415
▁paciencia	-10.4415
▁tráfico	-10.4415
▁video	-10.4415
▁boda	-10.4415
▁hablo	-10.4416
▁cantante	-10.4417
▁cansada	-10.4418
▁suddenly	-10.4418
▁vuelve	-10.4419
▁covered	-10.4424
▁faster	-10.4425
▁allow	-10.4426
cogió	-10.4427
▁Haga	-10.4428
▁singer	-10.443
▁noticed	-10.4431
▁probable	-10.4438
▁orden	-10.4448
▁dressed	-10.445
che	-10.4462
▁Am	-10.4498
z	-10.4522
adamente	-10.4553
▁isla	-10.4562
▁rumor	-10.4583
▁escuchó	-10.4591
▁furniture	-10.4591
▁gafas	-10.4591
▁política	-10.4591
▁government	-10.4591
▁headache	-10.4591
▁oyó	-10.4591
▁aunt	-10.4594
▁bedroom	-10.4595
▁judge	-10.4596
▁tía	-10.4596
▁cambiado	-10.4596
▁raro	-10.4597
▁finalmente	-10.4598
▁interesado	-10.4601
▁oscuro	-10.4601
▁Será	-10.4614
▁Canada	-10.4615
▁alcohol	-10.4623
▁correcta	-10.4624
eron	-10.4626
▁estábamos	-10.4632
▁wears	-10.4641
▁Fi	-10.4642
▁esas	-10.4642
▁lied	-10.4644
▁sonó	-10.4645
▁irá	-10.4647
miento	-10.4663
▁speaker	-10.4667
▁honesto	-10.4669
▁sientes	-10.4677
▁tratar	-10.4681
▁exist	-10.4685
▁hablan	-10.4704
▁fond	-10.4709
▁100	-10.4715
▁platos	-10.4718
▁forever	-10.4721
▁stole	-10.4721
▁otras	-10.4736
▁protect	-10.4743
▁ojo	-10.4761
▁natural	-10.4764
▁Spanish	-10.4769
▁absent	-10.4769
▁arroz	-10.4769
▁courage	-10.4769
▁español	-10.4769
▁subject	-10.4769
▁vuelo	-10.4769
▁Probablemente	-10.4769
▁sofá	-10.4769
▁quiso	-10.4769
▁theater	-10.477
▁robado	-10.477
▁mostró	-10.477
Preferiría	-10.4771
▁solución	-10.4771
▁bajó	-10.4772
▁avoid	-10.4776
▁perdí	-10.4779
▁scared	-10.478
▁golpeó	-10.478
▁suyo	-10.4785
▁digo	-10.4786
▁casarse	-10.4788
▁vegetables	-10.48
▁missing	-10.4805
▁averiguar	-10.4816
▁profesora	-10.4865
▁extraña	-10.4866
ion	-10.4866
▁map	-10.4867
▁entera	-10.4876
▁Estuv	-10.4896
▁sang	-10.4904
La	-10.4916
▁Sal	-10.4927
▁chino	-10.4931
▁trampa	-10.4932
▁vuestro	-10.4934
▁idiot	-10.4935
▁llamada	-10.4936
▁pastel	-10.4944
▁habit	-10.495
▁Friday	-10.4951
▁course	-10.4951
▁cuerda	-10.4951
▁cáncer	-10.4951
▁delicious	-10.4951
▁ejercicio	-10.4951
▁nobody	-10.4951
▁somebody	-10.4951
▁viento	-10.4951
▁viernes	-10.4951
▁boring	-10.4951
▁hielo	-10.4951
▁hubo	-10.4951
▁horrible	-10.4951
▁adelante	-10.4951
▁Llev	-10.4952
▁notice	-10.4952
▁Since	-10.4955
▁disappointed	-10.4956
▁escribe	-10.496
▁complaining	-10.496
▁arrested	-10.4961
▁prove	-10.4962
▁escucha	-10.4965
▁modo	-10.4966
▁bored	-10.4969
▁preguntaba	-10.497
▁hago	-10.4971
▁explained	-10.498
▁oro	-10.4983
▁amaba	-10.4983
▁washing	-10.4987
▁pas	-10.5006
▁ended	-10.5009
ud	-10.502
▁explicar	-10.5022
▁desayunar	-10.5026
▁soldados	-10.5049
▁Decid	-10.5057
ú	-10.5078
▁rains	-10.5081
▁crime	-10.5089
▁pe	-10.51
▁depende	-10.5105
▁pierna	-10.5126
▁Chicago	-10.5136
▁body	-10.5136
▁hobby	-10.5136
▁innocent	-10.5136
▁introduce	-10.5136
▁jacket	-10.5136
▁japoneses	-10.5136
▁license	-10.5136
▁purpose	-10.5136
▁sonrisa	-10.5136
▁straight	-10.5136
▁vuestra	-10.5136
▁tierra	-10.5136
▁rice	-10.5136
▁truck	-10.5136
▁dropped	-10.5137
▁guste	-10.5137
▁Read	-10.5137
▁llorando	-10.5137
vimos	-10.5138
▁enviar	-10.5142
▁agarr	-10.5145
té	-10.5151
▁suit	-10.5179
▁necesitamos	-10.5197
▁comenzar	-10.5212
iera	-10.5212
▁answered	-10.5225
▁chicas	-10.5235
▁escaleras	-10.5255
▁juega	-10.5261
time	-10.5265
ni	-10.5266
▁mapa	-10.5268
▁enseña	-10.5305
▁bare	-10.5306
▁fruta	-10.5313
▁peace	-10.5316
▁promesa	-10.5317
▁vuelva	-10.5317
▁flower	-10.532
▁aburrido	-10.5325
▁fresh	-10.5325
▁Unfortunately	-10.5325
▁understood	-10.5325
▁linda	-10.5325
▁Sometimes	-10.5325
▁recognize	-10.5325
▁stuck	-10.5325
▁deseo	-10.5325
▁Ningun	-10.5325
▁profundamente	-10.5326
▁prize	-10.5326
▁Encontré	-10.5326
▁caminando	-10.5326
▁sucedió	-10.5328
▁reached	-10.5335
▁race	-10.5335
▁yenes	-10.5335
▁cargo	-10.534
▁cancer	-10.5341
▁bella	-10.5344
▁darme	-10.5351
▁madera	-10.5356
▁CD	-10.5357
▁ordered	-10.5359
▁convencer	-10.536
▁ma	-10.536
▁estuve	-10.5362
rme	-10.5362
▁act	-10.5367
▁precios	-10.5371
▁paró	-10.5372
▁heat	-10.5373
▁oí	-10.5396
▁estáis	-10.5396
▁casada	-10.5425
ho	-10.5439
ach	-10.5443
▁sports	-10.545
▁nuevos	-10.5454
▁belongs	-10.5466
▁card	-10.5477
▁birds	-10.5482
▁Os	-10.5487
aré	-10.5494
▁appreciate	-10.55
▁vote	-10.5501
▁wood	-10.5513
▁explanation	-10.5517
▁frecuencia	-10.5517
▁injured	-10.5517
▁inocente	-10.5517
▁intelligent	-10.5517
▁lápiz	-10.5517
▁opción	-10.5517
▁sweet	-10.5517
▁tarjeta	-10.5517
▁gusto	-10.5517
▁cool	-10.5517
▁accused	-10.5517
▁sonrió	-10.5517
▁duty	-10.5517
▁vivid	-10.5518
▁conductor	-10.5518
▁sweater	-10.5518
▁tenés	-10.5518
▁dishes	-10.5519
▁tears	-10.552
▁tuya	-10.552
▁centro	-10.5522
▁negocio	-10.5525
▁invite	-10.5529
▁g	-10.553
▁convinced	-10.5537
▁escapar	-10.5537
▁saved	-10.554
▁extreme	-10.5544
Así	-10.555
▁actor	-10.555
▁pro	-10.5555
ated	-10.5564
▁legs	-10.5565
▁low	-10.5578
los	-10.5596
▁veré	-10.56
▁conocí	-10.5612
▁compar	-10.5619
▁conocer	-10.5632
arse	-10.5641
▁Han	-10.5663
▁familiar	-10.5665
▁mirar	-10.5685
▁irte	-10.57
▁fail	-10.57
▁nativo	-10.5707
▁pencil	-10.5709
▁broma	-10.5712
▁power	-10.5713
▁account	-10.5713
▁Yesterday	-10.5713
▁behavior	-10.5713
▁chaqueta	-10.5713
▁consciente	-10.5713
▁cuerpo	-10.5713
▁midnight	-10.5713
▁permiso	-10.5713
▁viviendo	-10.5713
▁view	-10.5713
▁awake	-10.5713
▁Help	-10.5713
▁exercise	-10.5713
▁throw	-10.5713
▁flight	-10.5714
▁ponga	-10.5714
▁harm	-10.5714
▁absolutely	-10.5715
▁merece	-10.5716
▁mentira	-10.5719
▁normalmente	-10.5719
▁manejar	-10.572
▁seriously	-10.5727
▁sangre	-10.5731
▁darte	-10.5746
▁elegir	-10.5747
▁cualquiera	-10.5763
▁crimen	-10.5765
▁discutir	-10.5767
▁Viv	-10.5772
▁guard	-10.5772
▁enseñar	-10.5794
▁romper	-10.5803
iento	-10.5819
▁human	-10.5829
▁arte	-10.5841
▁conocen	-10.5842
Sería	-10.5843
El	-10.5844
Conoce	-10.5861
Pode	-10.5862
ico	-10.5874
Tené	-10.5878
▁luck	-10.5883
▁believed	-10.5893
▁hid	-10.5895
▁England	-10.5913
▁Harvard	-10.5913
▁chicken	-10.5913
▁japonesa	-10.5913
▁medianoche	-10.5913
▁Ambos	-10.5913
▁earthquake	-10.5913
▁escribiendo	-10.5913
▁cash	-10.5913
▁respondió	-10.5914
▁explicación	-10.5914
▁entrada	-10.5915
▁roja	-10.5916
▁entire	-10.5916
▁middle	-10.5917
▁partir	-10.5921
ice	-10.594
▁flor	-10.595
ista	-10.5972
▁sold	-10.5972
éis	-10.5975
▁vender	-10.5982
▁record	-10.5999
▁pies	-10.601
▁debía	-10.6018
▁soldiers	-10.6022
▁bomb	-10.6033
▁U	-10.6037
▁hables	-10.6071
▁canta	-10.6073
▁mo	-10.6079
▁keeps	-10.608
▁gra	-10.6081
▁risk	-10.6088
▁extrem	-10.6091
ue	-10.6094
▁pintar	-10.6095
▁cars	-10.6098
▁fool	-10.6103
▁attack	-10.6104
▁baja	-10.6109
cluso	-10.6109
▁honor	-10.6117
▁muñeca	-10.6117
▁dirty	-10.6117
▁encuentro	-10.6117
▁espacio	-10.6117
▁fiebre	-10.6117
▁fábrica	-10.6117
▁passport	-10.6117
▁stick	-10.6117
▁toilet	-10.6117
▁space	-10.6117
▁dispuesto	-10.6117
▁probablemente	-10.6121
▁fever	-10.6121
▁És	-10.6126
▁wind	-10.613
▁descanso	-10.6132
▁resultado	-10.6133
▁fighting	-10.6141
▁shy	-10.6142
▁empeza	-10.6146
▁accepted	-10.6148
▁países	-10.6153
▁recibir	-10.617
▁cookies	-10.6175
▁healthy	-10.6187
ry	-10.6197
▁employees	-10.6203
▁empleados	-10.622
▁idiomas	-10.6225
▁art	-10.6235
▁paga	-10.6254
cted	-10.6278
▁cruz	-10.6296
▁raise	-10.6309
So	-10.6314
▁fair	-10.6319
▁hung	-10.6321
▁Finalmente	-10.6326
▁Inglaterra	-10.6326
▁consiguió	-10.6326
▁pasaporte	-10.6326
▁quisiera	-10.6326
▁similar	-10.6326
▁themselves	-10.6326
▁aprendiendo	-10.6326
▁mood	-10.6326
▁cortó	-10.6326
▁salvo	-10.6326
▁billetera	-10.6327
▁bigger	-10.633
▁Dije	-10.633
▁aff	-10.6331
▁season	-10.6331
▁pedirle	-10.6334
▁muchacho	-10.6336
▁sábado	-10.6336
▁página	-10.6336
▁deporte	-10.6338
▁laughing	-10.634
▁ocultar	-10.6342
▁bote	-10.6342
ones	-10.6344
▁corre	-10.6344
▁hablado	-10.6347
ation	-10.6349
▁intenta	-10.6358
▁War	-10.6364
▁meaning	-10.637
".	-10.6371
▁copia	-10.6376
▁limpia	-10.6398
um	-10.6407
▁handed	-10.6415
das	-10.643
▁windows	-10.6443
.000	-10.6444
gged	-10.6462
ías	-10.6469
▁dicen	-10.648
Él	-10.6488
▁Italia	-10.649
▁volar	-10.6496
▁encantan	-10.6503
▁bas	-10.6504
▁po	-10.6511
las	-10.6512
▁ante	-10.6521
mé	-10.6522
▁cien	-10.6537
▁Da	-10.6537
▁desea	-10.6538
▁bromeando	-10.6538
▁fresco	-10.6538
▁university	-10.6538
▁spring	-10.6538
▁absoluta	-10.6539
▁acabó	-10.6539
▁casualidad	-10.6539
giving	-10.6539
▁neither	-10.6539
▁derecha	-10.6539
▁ambos	-10.6539
▁Mother	-10.654
▁involved	-10.6541
▁vacía	-10.6542
▁Italy	-10.6542
▁cuidadoso	-10.6542
▁Dice	-10.6543
▁fuiste	-10.6544
▁mató	-10.6544
▁magazine	-10.6553
▁maleta	-10.6553
▁encuentra	-10.6553
▁dejara	-10.6557
▁kid	-10.6565
▁expecting	-10.6568
▁canciones	-10.6571
▁preocupes	-10.6571
robó	-10.6571
▁importar	-10.6572
▁preguntar	-10.6573
▁Hub	-10.658
▁ca	-10.6592
ón	-10.6597
▁rained	-10.6622
▁fingi	-10.6642
▁dis	-10.6659
ados	-10.6678
▁contact	-10.6691
▁tanta	-10.6691
Podé	-10.6704
▁duerme	-10.6706
▁treat	-10.6711
▁relax	-10.6729
▁dad	-10.6735
▁sentir	-10.675
▁cheap	-10.6753
▁dreams	-10.6755
▁blanca	-10.6756
▁caballero	-10.6756
▁cambió	-10.6756
▁dancing	-10.6756
▁objetivo	-10.6756
▁propuesta	-10.6756
▁seldom	-10.6756
▁televisor	-10.6756
▁rude	-10.6756
▁harto	-10.6756
▁lonely	-10.6756
▁comportamiento	-10.6756
▁oscuridad	-10.6756
▁asesinato	-10.6756
▁brush	-10.6756
▁drop	-10.6757
▁Father	-10.6757
▁recently	-10.6757
▁hole	-10.6759
▁explicó	-10.676
▁skirt	-10.6763
▁piernas	-10.6768
▁bonito	-10.6772
▁Ésta	-10.6776
ncia	-10.6777
▁revista	-10.6777
▁trap	-10.6778
▁cumplir	-10.6778
▁Habl	-10.6778
▁considered	-10.678
▁brave	-10.6785
▁sisters	-10.6791
▁followed	-10.6793
ive	-10.6799
▁fed	-10.6809
▁fondo	-10.683
ine	-10.6835
▁imp	-10.6843
▁ventanas	-10.686
▁calling	-10.6875
▁programa	-10.6883
▁preocupa	-10.6883
▁planea	-10.6896
▁solas	-10.6908
▁cu	-10.6932
▁apareció	-10.694
▁casar	-10.6944
tió	-10.6952
▁begins	-10.6952
▁querías	-10.6972
▁camión	-10.6978
▁conduce	-10.6978
▁costumbre	-10.6978
▁countries	-10.6978
▁cárcel	-10.6978
▁destino	-10.6978
▁genial	-10.6978
▁pérdida	-10.6978
▁roof	-10.6978
▁stuff	-10.6978
▁allergi	-10.6978
▁odio	-10.6978
▁suicide	-10.6978
▁intention	-10.6978
▁mentiroso	-10.6978
▁cometido	-10.6978
▁corrió	-10.6978
▁Jam	-10.6979
▁robaron	-10.6981
▁suspect	-10.6981
▁importaría	-10.6983
▁size	-10.6983
▁cried	-10.6984
▁techo	-10.6986
▁managed	-10.6987
▁copy	-10.699
▁cerró	-10.6992
▁dices	-10.6992
▁mente	-10.6995
▁fácilmente	-10.6995
▁raised	-10.6996
▁Op	-10.6998
▁trozo	-10.7001
▁pocket	-10.7002
▁sooner	-10.7005
▁hermanas	-10.7006
▁besó	-10.7007
▁muebles	-10.7008
▁dedos	-10.7015
▁miles	-10.7023
▁Per	-10.703
▁motor	-10.7033
▁daré	-10.7041
ró	-10.7074
ces	-10.7081
▁parecen	-10.709
▁ganado	-10.7095
▁admitt	-10.7121
▁meant	-10.7121
▁feels	-10.7123
▁vimos	-10.7124
▁doll	-10.7144
quiera	-10.7148
▁Ca	-10.7165
ish	-10.7189
vivió	-10.7197
▁útil	-10.7198
▁gold	-10.7204
▁Hokkaido	-10.7205
▁distinguir	-10.7205
▁excelente	-10.7205
▁facilidad	-10.7205
▁inmediato	-10.7205
▁jealous	-10.7205
▁memory	-10.7205
▁ourselves	-10.7205
▁propósito	-10.7205
▁solution	-10.7205
▁thief	-10.7205
▁despertar	-10.7205
▁mediodía	-10.7205
▁unlikely	-10.7205
▁rope	-10.7205
▁ciego	-10.7205
▁famosa	-10.7205
▁salido	-10.7206
▁forgotten	-10.7207
▁recibió	-10.721
▁land	-10.7212
▁pregunté	-10.7213
▁simplemente	-10.7213
▁climbed	-10.7217
▁llamado	-10.7229
▁galletas	-10.7231
▁supiera	-10.7232
▁piedra	-10.7234
▁dulce	-10.7237
▁neighbor	-10.7238
▁preparar	-10.724
▁cruzar	-10.7244
▁computadora	-10.7247
▁pinta	-10.7254
pt	-10.7262
▁stranger	-10.7264
Os	-10.7275
▁das	-10.7276
▁cab	-10.7276
▁entero	-10.728
▁jug	-10.7283
▁jokes	-10.7307
Y	-10.7317
▁Iré	-10.7336
fic	-10.7346
ria	-10.7367
▁ninguno	-10.7381
▁parada	-10.7389
▁necesitan	-10.7395
▁comí	-10.7402
▁sueños	-10.7408
▁appear	-10.7424
▁artículo	-10.7438
▁barato	-10.7438
▁corner	-10.7438
▁demasiada	-10.7438
▁dormitorio	-10.7438
▁gobierno	-10.7438
▁murieron	-10.7438
▁stairs	-10.7438
▁teatro	-10.7438
▁llame	-10.7438
▁instead	-10.7438
▁feet	-10.7438
▁escondiendo	-10.7438
▁bright	-10.7438
▁sabido	-10.7438
▁peces	-10.7438
▁Speak	-10.7439
▁denied	-10.7439
▁excuse	-10.7439
▁pegó	-10.744
▁math	-10.744
▁sabemos	-10.744
▁servicio	-10.744
▁useful	-10.7441
▁mirada	-10.7441
▁trabajó	-10.7441
cabo	-10.7442
▁pistola	-10.7445
▁venta	-10.7446
▁Tuv	-10.7448
▁forced	-10.7449
▁esos	-10.7449
▁diría	-10.745
▁delante	-10.7455
▁subió	-10.7457
▁continued	-10.7458
▁diet	-10.7461
▁acabado	-10.7464
▁washed	-10.7465
▁dieta	-10.747
▁bolsillo	-10.7473
▁doble	-10.7473
▁claim	-10.7475
▁i	-10.748
▁cometer	-10.7484
▁pasará	-10.7489
▁San	-10.7524
ru	-10.7526
▁quedaré	-10.7533
▁helping	-10.7562
▁talks	-10.7569
▁volveré	-10.7576
▁lock	-10.7578
▁adopt	-10.7581
▁invitados	-10.7589
▁fill	-10.7592
▁Ma	-10.7623
tábamos	-10.7641
tuvieron	-10.765
▁welcome	-10.7659
▁principal	-10.7668
▁proteger	-10.7669
▁bomba	-10.7673
ambién	-10.7676
▁accustom	-10.7676
▁comienza	-10.7676
▁cuadro	-10.7676
▁discusión	-10.7676
▁disparó	-10.7676
▁felicidad	-10.7676
▁jazz	-10.7676
▁joking	-10.7676
▁particular	-10.7676
▁recommend	-10.7676
▁temperatura	-10.7676
▁juice	-10.7676
▁quince	-10.7676
▁educación	-10.7676
▁basura	-10.7676
▁comfortable	-10.7676
▁obvious	-10.7676
▁blew	-10.7677
▁pez	-10.7677
▁menu	-10.7677
▁pity	-10.7678
▁confused	-10.7679
▁rep	-10.768
▁sushi	-10.768
▁fría	-10.7682
▁invitó	-10.7684
▁tomando	-10.7685
▁wise	-10.7685
▁Vaya	-10.7689
▁compraste	-10.7689
▁Oh	-10.7695
▁lágrimas	-10.7698
▁prepared	-10.7699
▁fixed	-10.7701
▁step	-10.7702
▁cola	-10.7702
▁escaped	-10.7709
bbed	-10.7712
▁Pasa	-10.7726
▁nuestras	-10.7735
▁ocupados	-10.774
▁Estudi	-10.774
pareció	-10.7743
▁cortar	-10.775
▁Des	-10.7765
gue	-10.7768
▁beso	-10.7776
▁golpe	-10.7777
▁míos	-10.7791
▁correos	-10.7794
émonos	-10.7797
illa	-10.7798
cer	-10.781
side	-10.7813
▁drugs	-10.782
omen	-10.7835
▁ayudara	-10.7845
▁willing	-10.7856
eme	-10.7856
▁lenguas	-10.786
▁descubri	-10.788
▁songs	-10.7895
▁pond	-10.7899
▁knock	-10.7908
▁tight	-10.7914
▁billete	-10.7918
▁School	-10.792
▁Tierra	-10.792
▁afortunado	-10.792
▁appointment	-10.792
▁factory	-10.792
▁llueva	-10.792
▁request	-10.792
▁supermarket	-10.792
▁supermercado	-10.792
▁valiente	-10.792
▁distancia	-10.792
▁adentro	-10.792
▁dumb	-10.792
▁argue	-10.792
▁motivo	-10.792
▁hogar	-10.7921
▁tongue	-10.7921
▁excited	-10.7922
▁obra	-10.7922
▁butter	-10.7922
▁Mamá	-10.7922
▁burned	-10.7927
▁distance	-10.7932
▁oil	-10.7933
ábamos	-10.7937
▁olvidar	-10.7938
▁anda	-10.794
▁arriba	-10.7943
▁asistir	-10.7949
▁stone	-10.7964
▁condition	-10.7966
▁vecino	-10.797
hap	-10.7983
der	-10.8013
▁hablaba	-10.8021
▁llamas	-10.8025
adas	-10.8029
▁lack	-10.803
▁bite	-10.8033
nse	-10.8055
ie	-10.8055
▁arrest	-10.8057
▁bajar	-10.806
▁loca	-10.8061
▁alcanzar	-10.8081
▁tastes	-10.8099
▁traj	-10.8101
▁area	-10.8101
ina	-10.8102
▁mira	-10.8102
▁armas	-10.8108
▁Americans	-10.812
ge	-10.8133
▁intend	-10.8157
lic	-10.8165
▁enorme	-10.8167
▁attempt	-10.817
▁abierto	-10.817
▁disease	-10.817
▁temperature	-10.817
▁esquina	-10.817
▁fifteen	-10.817
▁gratis	-10.817
▁football	-10.817
▁bathroom	-10.817
▁cierta	-10.817
▁gordo	-10.817
▁Papá	-10.8173
▁Mejor	-10.8175
▁jugador	-10.8175
▁levantarse	-10.8176
▁jumped	-10.8178
▁diré	-10.8179
Son	-10.8182
▁contestar	-10.8183
▁lady	-10.819
▁esconder	-10.8191
▁hablante	-10.8196
▁contado	-10.8204
▁sh	-10.8211
▁Llama	-10.8212
▁fingers	-10.8221
▁suitcase	-10.8222
▁cambia	-10.8224
▁Podé	-10.823
▁tarda	-10.8234
▁salvar	-10.824
▁dedo	-10.8254
▁li	-10.8258
▁podés	-10.828
▁doce	-10.8281
age	-10.8283
▁hojas	-10.8285
▁w	-10.8287
▁iré	-10.8288
▁debemos	-10.8288
tado	-10.8291
▁cercano	-10.8293
enza	-10.8302
ándose	-10.8318
▁hable	-10.8318
▁losing	-10.8327
ear	-10.8328
▁regresar	-10.8339
▁noon	-10.8362
Ella	-10.8378
▁fuma	-10.838
▁pat	-10.8384
izo	-10.8384
▁climb	-10.8401
▁lleve	-10.8405
▁besar	-10.8409
▁contest	-10.8411
▁letters	-10.8414
▁continue	-10.8421
▁mountains	-10.8423
implemente	-10.8425
▁absoluto	-10.8426
▁ajedrez	-10.8426
▁argument	-10.8426
▁avergonzado	-10.8426
▁bebida	-10.8426
▁boleto	-10.8426
▁bolso	-10.8426
▁cuello	-10.8426
▁excellent	-10.8426
▁maestro	-10.8426
▁moving	-10.8426
▁naked	-10.8426
▁pasatiempo	-10.8426
▁studies	-10.8426
▁million	-10.8426
▁gentleman	-10.8426
▁Roma	-10.8426
▁naive	-10.8427
▁lazy	-10.8427
▁email	-10.8427
▁Watch	-10.8427
▁vendría	-10.8428
▁increíble	-10.8428
▁Sorry	-10.8429
▁preparando	-10.8429
▁recibido	-10.8429
▁discovered	-10.843
▁esposo	-10.843
▁ingenuo	-10.8432
▁Cierr	-10.8433
▁material	-10.8441
seando	-10.8442
gar	-10.845
▁apagar	-10.8451
▁complain	-10.8454
▁dejé	-10.8456
▁informe	-10.8459
▁loud	-10.846
▁estaré	-10.8464
▁urgente	-10.8464
▁dry	-10.8464
▁saberlo	-10.8467
king	-10.847
▁descansar	-10.8477
▁sos	-10.8478
▁permite	-10.8483
nza	-10.8485
▁Visit	-10.8488
▁fotografía	-10.8488
▁metro	-10.85
▁molesta	-10.8505
▁detalles	-10.8508
ical	-10.8509
▁Trat	-10.8517
filled	-10.8526
▁oblig	-10.8527
ará	-10.8535
▁lights	-10.8541
▁Sha	-10.8551
▁hearing	-10.8555
▁Gue	-10.856
▁quedara	-10.8565
▁luces	-10.8593
▁conoces	-10.8594
▁admiti	-10.8612
▁acaso	-10.8613
▁Má	-10.8615
▁farm	-10.8631
rado	-10.8635
▁calls	-10.864
▁pleased	-10.8641
▁pieces	-10.8644
▁cute	-10.8648
prendió	-10.8659
▁caer	-10.8664
▁sta	-10.8673
▁obey	-10.8675
▁reach	-10.8678
▁posibilidad	-10.8682
▁meal	-10.8682
cía	-10.8682
▁comienzo	-10.8689
▁huele	-10.8689
▁levanté	-10.8689
▁neck	-10.8689
▁permission	-10.8689
▁proposal	-10.8689
▁segunda	-10.8689
▁pedido	-10.869
▁resemble	-10.869
▁sospechoso	-10.869
▁Rome	-10.869
▁handsome	-10.869
▁teoría	-10.869
▁clever	-10.869
▁awful	-10.869
▁salary	-10.869
▁menú	-10.8691
▁chess	-10.8693
▁anillo	-10.8693
▁Dejé	-10.8694
▁cubierta	-10.8694
▁preguntarle	-10.8695
▁prevented	-10.8698
▁suya	-10.87
▁suggested	-10.8702
▁climate	-10.8705
▁games	-10.8706
▁pretende	-10.8707
▁Send	-10.8718
▁socks	-10.873
▁verduras	-10.873
▁ayudarle	-10.8731
▁pocos	-10.8732
▁solved	-10.8735
▁creía	-10.8736
▁Ést	-10.8738
▁fuimos	-10.874
▁local	-10.8741
▁trusted	-10.8746
▁mayores	-10.8747
▁pi	-10.8751
▁terremoto	-10.8753
▁atrapado	-10.8755
▁fuerza	-10.8756
▁cousin	-10.8758
▁profesores	-10.8759
▁holiday	-10.8759
▁belong	-10.8761
▁drogas	-10.8762
▁friendly	-10.8771
▁partes	-10.8786
▁By	-10.8798
reció	-10.8802
▁llevo	-10.8807
▁imaginar	-10.8807
▁reserva	-10.8812
osa	-10.8835
▁banda	-10.8838
▁coma	-10.8856
▁andando	-10.8861
ese	-10.8866
▁Vin	-10.8872
▁naranjas	-10.8877
ling	-10.8879
▁vecinos	-10.8904
▁apart	-10.8927
▁ap	-10.8937
▁calma	-10.894
▁runs	-10.8945
▁shoulder	-10.8949
▁casados	-10.8951
Esta	-10.8952
▁silent	-10.8953
▁shall	-10.896
▁Pronto	-10.896
▁bottom	-10.896
▁carretera	-10.896
▁confianza	-10.896
▁examination	-10.896
▁goodbye	-10.896
▁jail	-10.896
▁nariz	-10.896
▁población	-10.896
▁profundo	-10.896
▁refrigerator	-10.896
▁responsible	-10.896
▁Cualquier	-10.896
▁Few	-10.896
▁impidió	-10.896
▁sueldo	-10.896
▁orgullosa	-10.896
▁pareja	-10.896
▁sleepy	-10.896
▁vistazo	-10.8961
▁equivocada	-10.8961
▁theory	-10.8962
▁cartera	-10.8962
▁upset	-10.8963
▁conferencia	-10.8963
▁grass	-10.8965
▁describe	-10.8966
▁stealing	-10.8968
▁empresa	-10.8969
ible	-10.8979
▁Sigue	-10.8984
▁attended	-10.8985
▁Say	-10.8989
▁limpio	-10.8994
▁deje	-10.8995
▁texto	-10.8997
▁culpar	-10.8999
▁montar	-10.9019
▁probar	-10.9021
▁taste	-10.9023
▁tenían	-10.9025
nce	-10.9025
rás	-10.9031
▁estudio	-10.9031
▁Pode	-10.9035
▁page	-10.9038
▁plato	-10.9039
▁huevo	-10.9039
▁fortuna	-10.904
▁ear	-10.9045
▁nor	-10.9046
▁poema	-10.9049
▁levantar	-10.9051
tuve	-10.9057
▁smells	-10.906
▁fe	-10.9067
▁forest	-10.907
▁rare	-10.9078
▁cabo	-10.9081
▁sonar	-10.9081
sh	-10.9105
▁querían	-10.9106
car	-10.9117
▁Trata	-10.9143
▁band	-10.9144
▁estrellas	-10.9152
▁ears	-10.916
▁marcha	-10.9167
▁pill	-10.9172
▁yes	-10.9173
▁cre	-10.9176
▁urgent	-10.9197
▁plu	-10.9197
,"	-10.92
▁difficulty	-10.9204
▁popula	-10.9216
▁suggest	-10.9223
▁escondi	-10.9227
▁match	-10.923
▁reír	-10.9231
▁slight	-10.9231
▁visa	-10.9231
▁criminal	-10.9232
▁Internet	-10.9238
▁emergency	-10.9238
▁estómago	-10.9238
▁hicimos	-10.9238
▁músico	-10.9238
▁rehus	-10.9238
▁responsable	-10.9238
▁sistema	-10.9238
▁tímido	-10.9238
▁amount	-10.9238
▁emergencia	-10.9238
▁amistad	-10.9238
▁drove	-10.9238
▁happiness	-10.9238
▁remedio	-10.9238
▁olvidé	-10.9238
▁opportunity	-10.9238
▁eventually	-10.9238
▁nurse	-10.9238
▁dying	-10.9238
▁social	-10.9238
▁agreement	-10.9239
▁preferido	-10.9239
▁saludable	-10.924
▁agradecido	-10.9242
▁completo	-10.9243
▁abandoned	-10.9245
▁gate	-10.9246
▁trago	-10.9248
▁compra	-10.9248
▁skiing	-10.9249
ight	-10.925
▁teaches	-10.9256
▁clearly	-10.9257
▁sonido	-10.9258
▁cantando	-10.9259
▁Li	-10.9261
▁mail	-10.9263
▁teaching	-10.9266
▁llamaré	-10.9275
▁quedado	-10.9287
Sabe	-10.929
▁papas	-10.9291
▁matters	-10.9292
▁artist	-10.9292
▁poem	-10.9306
▁Sí	-10.9319
▁espere	-10.9319
▁rose	-10.9321
▁estrella	-10.9323
▁naranja	-10.9323
▁egg	-10.9325
▁atrap	-10.9347
▁goal	-10.9356
▁Of	-10.937
▁depends	-10.937
▁Dud	-10.9372
▁miembros	-10.9378
rte	-10.9401
▁Co	-10.9408
▁lasted	-10.941
▁alarma	-10.9431
▁hated	-10.9447
▁experiment	-10.9466
Piensa	-10.947
▁abandonar	-10.9476
▁turno	-10.9487
▁ob	-10.9493
▁interest	-10.9498
entras	-10.9499
▁tra	-10.9508
▁necesidad	-10.9515
▁vengas	-10.952
▁Quédate	-10.9523
▁airplane	-10.9523
▁despedido	-10.9523
▁energy	-10.9523
▁ilegal	-10.9523
▁improbable	-10.9523
▁mantequilla	-10.9523
▁matrimonio	-10.9523
▁musician	-10.9523
▁neighborhood	-10.9523
▁plenty	-10.9523
▁relación	-10.9523
▁seguido	-10.9523
▁stories	-10.9523
▁Three	-10.9523
▁durmió	-10.9523
▁Listen	-10.9523
▁definite	-10.9523
▁inútil	-10.9523
▁cabello	-10.9523
▁Hurry	-10.9523
▁castillo	-10.9523
▁esperó	-10.9523
▁hubiese	-10.9523
▁iPad	-10.9523
▁patience	-10.9523
▁market	-10.9523
▁Policía	-10.9523
▁convencido	-10.9523
▁convenció	-10.9523
▁envió	-10.9524
▁Good	-10.9524
▁ground	-10.9524
▁above	-10.9524
zó	-10.9524
▁castle	-10.9525
▁ejemplo	-10.9526
▁lindo	-10.9526
▁Fro	-10.9527
▁deaf	-10.9529
▁huge	-10.953
▁crossed	-10.9535
▁licencia	-10.9537
▁bu	-10.9537
▁imagine	-10.9538
▁dieron	-10.9546
▁bebió	-10.9546
▁burl	-10.9548
▁flying	-10.9549
▁Won	-10.9553
▁Eat	-10.9556
▁anyway	-10.9558
▁na	-10.9559
▁hablas	-10.956
▁spends	-10.956
▁weak	-10.9565
▁listos	-10.9569
▁With	-10.9569
▁saltó	-10.9572
▁Sa	-10.9575
▁Llegu	-10.9578
▁program	-10.9578
▁duró	-10.9591
hi	-10.9596
▁bell	-10.9607
▁esfuerzo	-10.9616
▁photo	-10.9617
▁detail	-10.9617
▁costs	-10.9624
gi	-10.9627
prendí	-10.9646
▁produce	-10.9659
▁lee	-10.967
▁form	-10.9688
▁eras	-10.972
01	-10.9726
▁ski	-10.9731
▁K	-10.9734
▁import	-10.9739
Estaba	-10.9775
▁neighbors	-10.9775
Tu	-10.9781
▁viejos	-10.9783
▁mentir	-10.9795
▁none	-10.9798
op	-10.9806
▁nose	-10.981
▁sharp	-10.9815
▁España	-10.9817
▁Spain	-10.9817
▁Tomorrow	-10.9817
▁Volveré	-10.9817
▁cincuenta	-10.9817
▁conversation	-10.9817
▁falda	-10.9817
▁gritó	-10.9817
▁maravillosa	-10.9817
▁pantalones	-10.9817
▁puntual	-10.9817
▁puzzle	-10.9817
▁subway	-10.9817
▁system	-10.9817
safortunadamente	-10.9817
▁pool	-10.9817
▁require	-10.9817
▁esquiar	-10.9817
▁twelve	-10.9817
▁elevator	-10.9817
▁pagó	-10.9817
▁aspecto	-10.9818
▁requiere	-10.9818
▁example	-10.9818
▁sofa	-10.9818
▁easier	-10.9818
▁bench	-10.9818
▁cantidad	-10.9818
▁Should	-10.9819
▁Normalmente	-10.982
▁Asia	-10.982
▁trav	-10.9821
▁thirsty	-10.9822
▁asustado	-10.9822
▁Vuelve	-10.9823
▁manager	-10.9823
▁hill	-10.9825
▁stronger	-10.9827
▁article	-10.9828
▁passengers	-10.9833
▁habido	-10.9833
▁ignored	-10.9836
▁attacked	-10.9837
▁significado	-10.9839
▁estuviste	-10.9842
▁Creía	-10.9846
▁llegaron	-10.9846
oney	-10.9848
▁mom	-10.9855
▁invitar	-10.9855
▁millas	-10.9858
▁vol	-10.986
▁Day	-10.986
▁mover	-10.9865
▁hecha	-10.9867
bió	-10.987
▁regalos	-10.9884
red	-10.9889
▁sospecha	-10.9908
▁estúpida	-10.9916
rías	-10.9917
▁estadounidense	-10.992
▁sport	-10.9921
he	-10.9923
▁diferentes	-10.9945
men	-10.995
▁enfadar	-10.996
▁kinds	-10.9962
▁debí	-10.9964
▁verg	-10.9966
▁acordar	-10.997
▁necesitar	-10.9973
▁herir	-10.9999
▁oranges	-11.0003
▁comprender	-11.0016
▁novelas	-11.0024
▁abre	-11.0025
ncluso	-11.0026
▁buying	-11.0032
arte	-11.0037
▁asegurar	-11.0048
▁escritor	-11.005
▁imagin	-11.0055
aciones	-11.0059
Realmente	-11.0069
▁cap	-11.01
▁persuade	-11.0104
▁suffer	-11.0108
▁sandwich	-11.0113
virtió	-11.0119
hink	-11.012
▁automóvil	-11.012
▁energía	-11.012
▁equal	-11.012
▁equipaje	-11.012
▁fifty	-11.012
▁héroe	-11.012
▁lloró	-11.012
▁paquete	-11.012
▁rechazó	-11.012
▁relationship	-11.012
▁violencia	-11.012
▁área	-11.012
▁kidding	-11.012
▁kick	-11.012
▁prohibido	-11.0121
▁committed	-11.0121
▁Parecía	-11.0121
▁illness	-11.0121
▁enfadada	-11.0121
▁villa	-11.0122
▁pollo	-11.0122
▁arregl	-11.0122
▁uso	-11.0123
▁muchacha	-11.0123
▁potatoes	-11.0123
▁tallest	-11.0123
▁louder	-11.0123
▁perfectamente	-11.0124
▁granja	-11.0126
▁round	-11.0128
▁tranquilo	-11.013
▁hacemos	-11.0131
▁viva	-11.0132
▁survived	-11.0133
▁main	-11.0133
▁empezado	-11.0133
tivo	-11.0134
▁escuchado	-11.0134
▁Tuvi	-11.0135
▁Coge	-11.0136
▁perfectly	-11.0137
▁smaller	-11.0138
▁mañanas	-11.0141
▁artista	-11.015
▁Trabaja	-11.015
▁guests	-11.0155
▁querer	-11.0156
▁echa	-11.017
ponía	-11.0177
▁harías	-11.0182
▁Vive	-11.0191
▁results	-11.0194
▁prepare	-11.0196
up	-11.0198
▁dejaré	-11.0202
▁trabajaba	-11.0215
▁director	-11.0222
▁hombro	-11.0226
ccord	-11.0226
▁riesgo	-11.0227
▁disfruta	-11.023
▁escalera	-11.0234
▁luce	-11.0234
▁invitado	-11.0235
▁jugo	-11.0238
▁gasta	-11.0242
▁hu	-11.0251
▁contract	-11.0252
▁Ba	-11.0256
▁members	-11.0268
▁malas	-11.0286
▁prices	-11.029
▁caballos	-11.0296
M	-11.0301
▁reparar	-11.031
ous	-11.0311
▁estadounidenses	-11.0325
▁comen	-11.0325
▁Sundays	-11.0344
▁trae	-11.0364
▁expert	-11.0368
▁haz	-11.0375
tir	-11.039
▁Manten	-11.0404
ales	-11.0409
▁press	-11.0413
▁Aquel	-11.0415
▁tickets	-11.0417
▁resultados	-11.0421
▁slow	-11.0425
▁montañas	-11.043
▁ocurrir	-11.0431
▁Lincoln	-11.0433
▁October	-11.0433
▁Washington	-11.0433
▁apariencia	-11.0433
▁brown	-11.0433
▁calcetines	-11.0433
▁conversación	-11.0433
▁credit	-11.0433
▁curious	-11.0433
▁garage	-11.0433
▁gracioso	-11.0433
▁impaciente	-11.0433
▁maravilloso	-11.0433
▁nosotras	-11.0433
▁smiling	-11.0433
▁suspicious	-11.0433
▁traducir	-11.0433
▁website	-11.0433
▁elección	-11.0433
▁eleven	-11.0433
▁weird	-11.0433
▁conoció	-11.0433
▁colina	-11.0433
▁couch	-11.0433
▁tough	-11.0433
▁poniendo	-11.0433
▁curso	-11.0434
▁querido	-11.0434
▁saliera	-11.0434
▁supone	-11.0434
▁saliendo	-11.0435
▁scolded	-11.0435
▁regaló	-11.0436
▁betrayed	-11.0436
▁ciento	-11.0436
▁preocupada	-11.0437
▁verdadera	-11.0437
▁monte	-11.0437
▁cuánta	-11.0437
▁shelf	-11.0438
▁trabajadores	-11.0439
▁levantarme	-11.044
▁woods	-11.044
▁pensado	-11.0441
▁ayudarnos	-11.0444
▁altura	-11.0448
▁robar	-11.0448
▁complained	-11.0449
▁supuesto	-11.045
▁nuevamente	-11.0452
Necesita	-11.0453
▁tratado	-11.0456
▁Russian	-11.0458
▁Quiere	-11.0458
▁houses	-11.0466
▁leyó	-11.0468
▁ga	-11.048
▁uses	-11.0489
▁Sh	-11.0491
▁adora	-11.0494
▁ascensor	-11.0503
▁writer	-11.0504
▁starting	-11.0524
ook	-11.0524
▁prepar	-11.0525
▁within	-11.0547
▁viniera	-11.055
pusieron	-11.0554
▁orange	-11.0555
▁decía	-11.0578
▁using	-11.0579
▁respuestas	-11.0621
▁autor	-11.0623
▁quitar	-11.0625
▁deber	-11.0626
▁autos	-11.0627
▁termina	-11.0629
▁extranjeros	-11.0631
▁modern	-11.065
▁pesca	-11.0652
one	-11.0657
endo	-11.0682
▁dará	-11.0708
▁marca	-11.0719
▁cross	-11.0731
▁complete	-11.0733
▁hechos	-11.0739
▁ruin	-11.074
▁refuse	-11.074
▁push	-11.0742
▁bald	-11.0743
▁mention	-11.0745
▁quick	-11.0749
▁author	-11.0755
▁advantage	-11.0755
▁agujero	-11.0755
▁capitán	-11.0755
▁departamento	-11.0755
▁encontraste	-11.0755
▁exchange	-11.0755
▁illegal	-11.0755
▁plata	-11.0755
▁podamos	-11.0755
▁podido	-11.0755
▁possibility	-11.0755
▁pudimos	-11.0755
▁suéter	-11.0755
▁anciana	-11.0756
becoming	-11.0756
▁enfermera	-11.0756
▁breve	-11.0756
▁Bueno	-11.0756
▁lentamente	-11.0756
▁toalla	-11.0756
▁salida	-11.0757
▁embarrassed	-11.0757
▁tenéis	-11.0758
▁field	-11.0759
▁medida	-11.0759
▁J	-11.076
▁nearest	-11.076
▁third	-11.0761
▁Escuché	-11.0761
▁graduated	-11.0763
▁ability	-11.0763
▁sort	-11.0764
▁francesa	-11.0765
▁Dale	-11.0767
▁repaired	-11.0768
▁pulled	-11.0769
▁gotten	-11.0769
▁due	-11.0771
▁iguales	-11.0773
▁board	-11.0774
▁llevan	-11.0779
▁últimamente	-11.078
▁borrowed	-11.0786
▁dijera	-11.0789
▁apologized	-11.079
▁schedule	-11.0791
▁toques	-11.0797
ntes	-11.0819
▁mu	-11.0822
▁renunciar	-11.0827
▁badly	-11.0842
▁quedamos	-11.0843
▁stars	-11.0845
▁vemos	-11.0847
▁tr	-11.0852
▁iría	-11.0854
▁handle	-11.0855
bre	-11.0865
▁sore	-11.0873
▁salga	-11.0874
▁rosa	-11.0879
▁hurts	-11.0882
▁drug	-11.089
▁sepas	-11.089
▁verle	-11.0892
wa	-11.0895
ond	-11.0896
▁queja	-11.0896
▁divide	-11.0919
▁carrie	-11.0926
▁teme	-11.0931
▁Mom	-11.094
N	-11.0942
▁piensan	-11.0964
▁cuida	-11.0977
▁noches	-11.0984
▁olvida	-11.0996
▁mando	-11.0999
▁holidays	-11.1001
▁mess	-11.1016
,000	-11.1022
▁hagan	-11.1026
ick	-11.1035
though	-11.1038
ric	-11.1044
▁recoger	-11.106
▁deportes	-11.1069
▁gritar	-11.1071
▁rec	-11.1073
▁engine	-11.1076
Sabé	-11.1077
▁despedir	-11.1077
Vist	-11.1077
ací	-11.1078
▁cancel	-11.1078
ez	-11.1078
pongo	-11.108
▁débil	-11.1081
▁rode	-11.1086
▁Mo	-11.1088
▁Perdón	-11.1089
▁greet	-11.1089
▁Brasil	-11.1089
▁Disculpe	-11.1089
▁Smoking	-11.1089
▁Tráeme	-11.1089
▁aceptó	-11.1089
▁apartamento	-11.1089
▁captain	-11.1089
▁childhood	-11.1089
▁cierra	-11.1089
▁enseguida	-11.1089
▁estupendo	-11.1089
▁otoño	-11.1089
▁pañuelo	-11.1089
▁razonable	-11.1089
▁respeto	-11.1089
▁retraso	-11.1089
▁supper	-11.1089
▁vacío	-11.1089
▁value	-11.1089
▁zoológico	-11.1089
▁Llámame	-11.1089
▁apagó	-11.1089
▁curiosidad	-11.1089
▁plate	-11.1089
proximadamente	-11.1089
▁center	-11.1089
▁marriage	-11.1089
▁pull	-11.1089
▁creyó	-11.1089
▁dislike	-11.1089
▁Close	-11.1089
▁conversar	-11.1089
▁interés	-11.1089
▁regresó	-11.1089
▁winning	-11.1089
▁foolish	-11.1089
▁puesta	-11.1089
▁subir	-11.1089
▁armario	-11.1089
▁education	-11.109
▁cell	-11.109
▁ocultando	-11.109
▁trece	-11.109
▁file	-11.1091
▁consigo	-11.1091
▁Cats	-11.1092
▁bebiendo	-11.1092
▁bang	-11.1093
▁ta	-11.1093
▁someday	-11.1093
▁acusado	-11.1094
▁cor	-11.1095
▁tocando	-11.1095
▁useless	-11.1096
▁llegaste	-11.1097
▁celoso	-11.1097
▁contrato	-11.1099
▁warned	-11.11
entí	-11.1103
▁quedaron	-11.111
▁pequeños	-11.1118
▁pasajeros	-11.112
▁progress	-11.112
▁esperado	-11.112
▁dirá	-11.1125
▁vernos	-11.1126
▁talento	-11.1137
▁Intenta	-11.1138
▁skin	-11.1144
▁irnos	-11.1153
▁Whi	-11.1159
▁experto	-11.1159
▁Italian	-11.1166
▁plant	-11.1175
▁action	-11.1178
▁fantasmas	-11.1182
▁enemigos	-11.1186
tally	-11.1196
▁odian	-11.1209
▁pelear	-11.1215
aking	-11.1218
▁Hi	-11.122
▁paying	-11.1222
▁aquellos	-11.1224
▁changes	-11.1227
▁guardar	-11.123
▁alimentar	-11.1231
▁primo	-11.1232
▁disculpas	-11.1254
ze	-11.1255
▁letra	-11.1261
▁llevas	-11.1261
▁vende	-11.1274
▁quedes	-11.1284
hings	-11.1292
▁citizen	-11.1294
hí	-11.1295
▁amigas	-11.1319
▁insult	-11.1331
law	-11.1364
▁Lleg	-11.1386
▁Queda	-11.1395
Recuerda	-11.1404
▁answers	-11.1417
▁escribí	-11.142
▁nuevas	-11.1425
▁tail	-11.1426
ín	-11.1426
▁polite	-11.1429
▁sp	-11.1431
▁11	-11.1433
▁Brazil	-11.1434
▁Mexico	-11.1434
▁acercó	-11.1434
▁alternativa	-11.1434
▁available	-11.1434
▁condiciones	-11.1434
▁cuestión	-11.1434
▁escenario	-11.1434
▁grateful	-11.1434
▁junio	-11.1434
▁mirror	-11.1434
▁octubre	-11.1434
▁private	-11.1434
▁sencillo	-11.1434
▁testigo	-11.1434
▁unhappy	-11.1434
▁velocidad	-11.1434
▁éstos	-11.1434
▁medicamento	-11.1434
▁pierde	-11.1434
▁espejo	-11.1434
▁robbed	-11.1434
▁towel	-11.1434
▁soltero	-11.1434
▁collar	-11.1434
▁millones	-11.1434
cel	-11.1434
▁sano	-11.1434
▁amazing	-11.1434
▁violence	-11.1434
▁evil	-11.1434
▁sordo	-11.1434
▁aprendido	-11.1434
▁queréis	-11.1434
▁éste	-11.1434
▁gallina	-11.1434
▁trapped	-11.1434
▁ciencia	-11.1435
▁nuts	-11.1435
▁ataque	-11.1435
▁agotado	-11.1436
▁birth	-11.1436
▁cabra	-11.1437
▁colectivo	-11.1437
▁fila	-11.1437
▁desearía	-11.1438
▁volviendo	-11.1438
▁pale	-11.144
▁sirve	-11.144
▁pesado	-11.144
▁greatest	-11.1441
▁acabar	-11.1441
▁intentarlo	-11.1442
▁abandonó	-11.1443
▁debt	-11.1444
▁venía	-11.1445
▁original	-11.1447
▁pagado	-11.1448
▁corte	-11.1448
▁metal	-11.1448
▁detuvo	-11.1449
▁piel	-11.1452
▁vuelvas	-11.1452
▁appeared	-11.1454
▁deserted	-11.1457
▁hop	-11.1459
Recibí	-11.1462
▁succeeded	-11.1465
ard	-11.1466
▁depressed	-11.1467
▁successful	-11.1472
▁impuestos	-11.1473
▁detener	-11.1475
▁Venga	-11.1482
▁che	-11.1486
▁nubes	-11.1487
▁solos	-11.1488
▁clouds	-11.1494
▁conocemos	-11.1495
▁toward	-11.1497
▁larger	-11.1499
ied	-11.15
Pensaba	-11.1501
▁tend	-11.1502
!"	-11.1505
▁bello	-11.1509
ller	-11.1512
▁usando	-11.1516
▁iremos	-11.1518
▁escalar	-11.1519
▁pr	-11.1523
▁nadando	-11.1541
▁ghosts	-11.1544
▁bat	-11.1552
▁ref	-11.1584
ame	-11.1587
▁cigarette	-11.1589
▁regla	-11.1592
ciona	-11.1611
▁presentes	-11.1627
▁Hey	-11.1631
iva	-11.1633
▁tomo	-11.1638
etesto	-11.1644
▁presta	-11.1649
tando	-11.1684
▁Olvidé	-11.1686
aremos	-11.1691
▁Hazl	-11.1693
▁promet	-11.1697
▁cae	-11.1699
bor	-11.171
▁horses	-11.1712
▁robo	-11.1728
¿	-11.1736
B	-11.174
▁demanda	-11.1741
▁chose	-11.1748
▁lean	-11.1757
▁repair	-11.1765
▁señor	-11.177
▁devolver	-11.1775
▁disturb	-11.1776
▁repeat	-11.1777
▁shock	-11.1777
▁search	-11.1778
▁build	-11.1779
▁dificultad	-11.1783
▁sudden	-11.1784
▁thin	-11.1788
▁Deje	-11.179
▁stomach	-11.1791
▁Facebook	-11.1791
▁Yokohama	-11.1791
▁alcalde	-11.1791
▁arguing	-11.1791
▁baile	-11.1791
▁beauty	-11.1791
▁bienvenido	-11.1791
▁bucket	-11.1791
▁changing	-11.1791
▁cosecha	-11.1791
▁crédito	-11.1791
▁disponible	-11.1791
▁encontramos	-11.1791
▁fortune	-11.1791
▁guapo	-11.1791
▁impresión	-11.1791
▁lecture	-11.1791
▁llamo	-11.1791
▁negra	-11.1791
▁ocurrido	-11.1791
▁parecido	-11.1791
▁practice	-11.1791
▁ridículo	-11.1791
▁suicidó	-11.1791
▁violín	-11.1791
▁witness	-11.1791
▁deshacer	-11.1791
▁desnudo	-11.1791
▁despise	-11.1791
▁failure	-11.1791
▁pleasant	-11.1791
▁wild	-11.1791
▁Water	-11.1791
▁dirigi	-11.1791
▁huyó	-11.1791
▁aprendiste	-11.1791
▁libertad	-11.1791
▁polvo	-11.1791
▁belleza	-11.1791
▁buried	-11.1791
▁Promet	-11.1791
▁confía	-11.1791
▁Pregúntale	-11.1792
▁asesinado	-11.1792
▁Intenté	-11.1793
▁moda	-11.1793
▁disappeared	-11.1793
▁friendship	-11.1793
▁sentarme	-11.1796
▁fallen	-11.1798
▁ausente	-11.18
▁invented	-11.1802
oso	-11.1802
▁divorced	-11.1805
▁emocionado	-11.1805
▁intento	-11.1806
▁promesas	-11.1807
▁Antes	-11.181
▁pu	-11.1811
▁treated	-11.1813
Este	-11.1821
▁Llega	-11.1822
▁entregar	-11.1822
▁consejos	-11.1823
▁ponerse	-11.1823
▁beside	-11.1829
▁cual	-11.1842
▁hacerse	-11.1842
▁miel	-11.1848
▁Che	-11.1855
▁traveling	-11.1859
▁Ésa	-11.186
▁cleaning	-11.1861
▁express	-11.1863
▁cooked	-11.1863
▁snowing	-11.1868
▁verla	-11.1871
▁wet	-11.1871
▁workers	-11.1881
▁document	-11.1908
▁descubrir	-11.1912
▁pasto	-11.1913
▁stamps	-11.1921
▁apuesto	-11.1924
▁meter	-11.1925
▁cómodo	-11.1925
▁teachers	-11.1948
arme	-11.1949
▁Asum	-11.1951
▁hábito	-11.1954
▁antiguo	-11.1955
▁saving	-11.1957
▁charla	-11.1961
▁soldier	-11.1962
▁soldado	-11.1966
ció	-11.1967
vis	-11.1973
▁productos	-11.1973
▁actuar	-11.1981
▁herida	-11.1983
▁Hable	-11.1986
▁dé	-11.1988
▁inter	-11.1989
▁musical	-11.1994
▁Rec	-11.1994
▁llen	-11.1997
▁com	-11.2008
▁canadienses	-11.202
▁novels	-11.2032
▁details	-11.2041
▁photos	-11.2041
O	-11.2053
▁ayudará	-11.2055
▁aprende	-11.2062
▁predict	-11.2099
ithout	-11.2101
Debería	-11.211
ug	-11.2113
▁text	-11.2113
Teng	-11.2128
▁Espere	-11.214
▁quedan	-11.2143
▁draw	-11.2146
▁concern	-11.2148
▁flu	-11.2154
▁hire	-11.2155
tter	-11.2156
▁ignore	-11.2157
▁supo	-11.2158
▁electric	-11.216
▁alfombra	-11.2161
▁baffled	-11.2161
▁basketball	-11.2161
▁batalla	-11.2161
▁cinturón	-11.2161
▁delicioso	-11.2161
▁despertó	-11.2161
▁efectivo	-11.2161
▁exhausted	-11.2161
▁gerente	-11.2161
▁laptop	-11.2161
▁lástima	-11.2161
▁molesto	-11.2161
▁provide	-11.2161
▁regrese	-11.2161
▁salvó	-11.2161
▁sensible	-11.2161
▁sugirió	-11.2161
▁Picasso	-11.2161
▁service	-11.2161
▁ruso	-11.2161
▁battle	-11.2161
▁vinieron	-11.2161
▁complicated	-11.2161
▁everywhere	-11.2161
▁rush	-11.2161
▁mintió	-11.2161
▁invitation	-11.2161
▁rota	-11.2161
▁invitación	-11.2162
▁México	-11.2162
▁salario	-11.2162
▁atrasado	-11.2164
▁tendría	-11.2165
▁tocó	-11.2165
▁impressed	-11.2165
▁decepcionado	-11.2165
▁capaces	-11.2166
▁pressure	-11.2167
▁tiró	-11.2167
▁Park	-11.2169
▁entendido	-11.217
▁lies	-11.2171
▁sentar	-11.2171
▁cometió	-11.2174
▁intentado	-11.2177
▁ruined	-11.2177
▁pushed	-11.2177
▁considerado	-11.2179
▁cercana	-11.2181
▁imagen	-11.2182
▁arms	-11.2184
▁Siga	-11.2185
▁ordenó	-11.2193
▁visitado	-11.2201
▁force	-11.2207
▁votar	-11.2212
ng	-11.2219
▁signed	-11.2229
▁tap	-11.2236
▁pareces	-11.2244
▁Ador	-11.2255
▁norte	-11.2259
▁pa	-11.2264
▁apunt	-11.2269
▁Dej	-11.2273
▁Sali	-11.2282
▁buses	-11.2292
▁copa	-11.2293
ized	-11.23
▁iron	-11.2302
▁carga	-11.2304
ance	-11.2307
ext	-11.2312
▁exp	-11.2324
▁compañeros	-11.2335
▁prefiere	-11.2342
▁extranjera	-11.2343
▁effort	-11.2343
▁chiste	-11.2346
▁acostumbrar	-11.2351
▁arena	-11.2351
▁largas	-11.2356
▁quejas	-11.2361
▁Dad	-11.2363
▁accidentes	-11.2368
▁fu	-11.2387
▁starts	-11.2396
▁decid	-11.2413
▁opera	-11.2426
▁tareas	-11.244
▁plantas	-11.244
ried	-11.2452
cient	-11.2453
ui	-11.2456
cho	-11.2464
▁permit	-11.2469
teniendo	-11.2469
▁mud	-11.2474
▁add	-11.2499
▁convertir	-11.2506
▁Díga	-11.2513
▁Acaba	-11.2519
▁ocupa	-11.2519
▁alérgic	-11.2525
▁dentist	-11.2528
ndré	-11.2529
▁lift	-11.2532
▁crash	-11.2532
▁gain	-11.2533
▁desert	-11.2534
▁steal	-11.2534
▁sand	-11.2538
▁baña	-11.2538
▁lu	-11.254
▁photograph	-11.2543
▁Hawaii	-11.2546
▁World	-11.2546
▁audience	-11.2546
▁caluroso	-11.2546
▁despierta	-11.2546
▁economía	-11.2546
▁enemies	-11.2546
▁genio	-11.2546
▁genius	-11.2546
▁handkerchief	-11.2546
▁kilómetros	-11.2546
▁llamé	-11.2546
▁mochila	-11.2546
▁professor	-11.2546
▁razones	-11.2546
▁sonreír	-11.2546
▁íbamos	-11.2546
▁adiós	-11.2546
▁excusa	-11.2546
▁insane	-11.2546
▁itself	-11.2546
▁opina	-11.2546
▁speed	-11.2546
▁ugly	-11.2546
▁diary	-11.2546
▁dueño	-11.2546
▁solicitud	-11.2546
▁election	-11.2546
▁pintó	-11.2546
▁cima	-11.2546
▁coward	-11.2546
▁master	-11.2546
▁corté	-11.2546
▁nivel	-11.2547
▁mantiene	-11.2547
▁Find	-11.2547
▁importancia	-11.2548
▁vieron	-11.2549
▁leader	-11.2549
▁frightened	-11.255
▁dama	-11.2551
▁punished	-11.2551
▁puse	-11.2552
▁cheated	-11.2553
▁sabían	-11.2553
lew	-11.2558
ara	-11.2558
▁capable	-11.2559
▁spite	-11.256
▁sentada	-11.2561
▁hello	-11.2562
▁dentista	-11.2564
▁deeply	-11.2564
▁cantó	-11.2568
▁acting	-11.2571
Yo	-11.2572
gó	-11.2572
▁seguros	-11.2573
▁quedando	-11.2575
▁diste	-11.258
▁llegaría	-11.2589
Escribe	-11.259
▁kissing	-11.2591
▁pidie	-11.2592
▁dejaría	-11.2597
▁compre	-11.2601
▁Vete	-11.2604
▁classes	-11.2606
▁gives	-11.2608
▁expresar	-11.2609
▁voted	-11.2614
▁vayamos	-11.2625
▁admitir	-11.2626
▁callado	-11.263
▁alumnos	-11.2638
▁hero	-11.2639
▁wondering	-11.2659
▁quede	-11.2664
▁ibas	-11.2669
▁army	-11.2672
▁visiting	-11.2674
▁atra	-11.2698
▁acuerdas	-11.2702
F	-11.2706
▁Pase	-11.272
▁chi	-11.2721
▁amar	-11.2728
▁fines	-11.2736
▁hambriento	-11.274
▁cerdo	-11.2741
▁miembro	-11.2746
▁Suel	-11.2747
▁chat	-11.2748
▁usado	-11.275
▁empleado	-11.2754
▁desayuna	-11.2767
▁vendi	-11.2775
▁respond	-11.2776
pó	-11.279
▁comp	-11.2804
▁esfuerzos	-11.2816
▁producto	-11.2833
▁entra	-11.2841
sion	-11.2843
▁gast	-11.2845
▁leí	-11.2847
▁violin	-11.2849
▁Consider	-11.286
for	-11.2867
▁talent	-11.2872
▁names	-11.2885
▁drives	-11.2888
▁dulces	-11.289
▁controlar	-11.2891
▁trabajado	-11.29
▁vase	-11.2902
▁llora	-11.2908
tura	-11.2914
▁vienes	-11.2921
▁advance	-11.2929
▁admire	-11.2929
▁improve	-11.2929
▁mandar	-11.293
▁wound	-11.2932
▁receive	-11.2937
▁sándwich	-11.2938
arlo	-11.2942
▁nevar	-11.2943
rán	-11.2944
▁scene	-11.2946
▁First	-11.2946
▁June	-11.2946
▁accompan	-11.2946
▁baloncesto	-11.2946
▁celular	-11.2946
▁compromiso	-11.2946
▁conduciendo	-11.2946
▁current	-11.2946
▁desierto	-11.2946
▁desperté	-11.2946
▁detective	-11.2946
▁economy	-11.2946
▁formulario	-11.2946
▁física	-11.2946
▁grosero	-11.2946
▁móvil	-11.2946
▁notebook	-11.2946
▁oficial	-11.2946
▁pepper	-11.2946
▁piscina	-11.2946
▁prima	-11.2946
▁ridiculous	-11.2946
▁seguida	-11.2946
▁tránsito	-11.2946
▁fox	-11.2946
▁okay	-11.2946
▁escena	-11.2946
▁campana	-11.2946
▁mercado	-11.2946
▁juez	-11.2946
▁spread	-11.2946
▁reuniones	-11.2946
▁bound	-11.2946
▁bala	-11.2946
▁fracaso	-11.2946
▁espero	-11.2946
▁gorda	-11.2946
▁cuyo	-11.2946
▁rieron	-11.2946
▁anger	-11.2946
▁definitivamente	-11.2946
▁fecha	-11.2946
▁coser	-11.2947
▁guardia	-11.2947
▁peel	-11.2947
▁pour	-11.2947
▁saltar	-11.2947
▁Dijo	-11.2947
▁exciting	-11.2948
▁outfit	-11.2948
▁claramente	-11.2949
▁tercer	-11.2949
▁kindness	-11.295
▁noisy	-11.2951
▁lion	-11.2951
▁arrestado	-11.2951
▁aumento	-11.2951
▁niñas	-11.2951
▁disculpa	-11.2952
▁scientist	-11.2952
▁elected	-11.2952
▁candy	-11.2954
ster	-11.2955
▁mistaken	-11.2956
▁mathematics	-11.2958
▁gained	-11.296
▁confundido	-11.2962
▁oscura	-11.2967
▁vago	-11.2968
▁persuaded	-11.2969
▁levantado	-11.297
▁concentrate	-11.2972
▁obedecer	-11.2974
▁ringing	-11.2975
▁vain	-11.2976
llón	-11.2976
▁encendió	-11.2977
▁contactar	-11.2978
▁trataba	-11.2981
▁tendré	-11.2981
▁falling	-11.2989
ición	-11.2996
▁contain	-11.3003
▁venden	-11.3005
▁presentar	-11.3013
▁pica	-11.3015
▁hall	-11.3026
▁diera	-11.3027
Les	-11.3041
van	-11.3048
▁costa	-11.3048
▁alma	-11.3051
▁trenes	-11.3061
sión	-11.308
ple	-11.3086
▁indica	-11.3097
day	-11.3099
▁muertos	-11.3113
▁Escucha	-11.3116
▁pon	-11.3117
ló	-11.3138
▁continuar	-11.3141
▁firmar	-11.3147
▁cheek	-11.3154
▁Time	-11.316
▁member	-11.3162
tener	-11.3191
▁ocupar	-11.3191
L	-11.32
▁bi	-11.3205
▁orders	-11.3225
▁warn	-11.3229
▁cur	-11.3235
▁poems	-11.3237
▁cuid	-11.3237
▁mejorar	-11.3247
▁cansados	-11.326
▁fotografías	-11.3262
▁dormí	-11.3264
▁brazos	-11.3269
▁abra	-11.3276
▁admira	-11.3286
▁planta	-11.3303
▁suceder	-11.3303
▁model	-11.3304
▁inform	-11.3305
▁teníamos	-11.3309
looking	-11.3312
Todo	-11.3312
▁grab	-11.3319
▁seca	-11.333
▁interrupt	-11.3335
▁jump	-11.3336
▁perdonar	-11.3341
▁depend	-11.3343
▁behave	-11.3345
▁survive	-11.3346
▁prevent	-11.3349
▁gather	-11.3352
aña	-11.3353
▁attract	-11.3362
▁terror	-11.3362
▁anxious	-11.3362
▁apoyo	-11.3362
▁basket	-11.3362
▁cierre	-11.3362
▁confío	-11.3362
▁enojada	-11.3362
▁envelope	-11.3362
▁garganta	-11.3362
▁instrument	-11.3362
▁kilometers	-11.3362
▁quizá	-11.3362
▁silence	-11.3362
▁tamaño	-11.3362
▁throat	-11.3362
▁ríe	-11.3362
▁grapes	-11.3362
▁Compare	-11.3362
▁viniste	-11.3362
▁punta	-11.3362
▁cobarde	-11.3363
▁amarillo	-11.3363
▁acusó	-11.3363
▁calvo	-11.3363
▁colgó	-11.3363
▁actress	-11.3363
▁naturaleza	-11.3363
▁brand	-11.3363
▁océano	-11.3363
▁sencilla	-11.3363
▁acostumbrada	-11.3364
▁cubierto	-11.3364
▁brain	-11.3364
▁disc	-11.3364
▁suggestion	-11.3364
▁fought	-11.3365
▁trato	-11.3365
▁volando	-11.3365
▁seriamente	-11.3365
▁forgetful	-11.3365
▁Entiendo	-11.3365
▁Alice	-11.3365
▁south	-11.3365
▁quejando	-11.3366
▁disfrut	-11.3366
▁sabrá	-11.3367
▁peleando	-11.3369
▁annoying	-11.3369
▁spilled	-11.337
▁harta	-11.3371
▁gira	-11.3375
▁inclinó	-11.3375
▁escondido	-11.3375
▁Africa	-11.3377
▁Vale	-11.3377
▁voluntario	-11.3377
▁cocinando	-11.3378
▁juzgar	-11.3379
▁Entonces	-11.3379
Buen	-11.338
▁llamaste	-11.3382
▁fi	-11.3384
▁tied	-11.3388
▁regular	-11.3389
▁casarte	-11.3391
ismo	-11.3394
▁staring	-11.3396
▁lava	-11.3397
▁growing	-11.3397
▁murdered	-11.3401
▁llegamos	-11.341
▁oírte	-11.3412
▁dime	-11.3413
probó	-11.3418
rge	-11.3419
▁lower	-11.3421
▁piloto	-11.3421
▁planeta	-11.3426
▁hopes	-11.3434
▁Po	-11.3436
▁comprarlo	-11.3437
▁perfecta	-11.3442
▁lit	-11.3444
▁ayudaría	-11.3445
▁cleaned	-11.3454
▁compartir	-11.3457
▁Pe	-11.3457
▁formas	-11.3459
▁llamaba	-11.3462
▁notas	-11.3466
▁visité	-11.3473
▁owner	-11.3486
ezca	-11.3491
▁breathe	-11.3492
▁regalar	-11.3496
▁resist	-11.3503
▁Entra	-11.3506
▁inteligentes	-11.352
iv	-11.3523
lf	-11.3524
melo	-11.3526
▁sc	-11.3539
elo	-11.3542
▁estarás	-11.355
▁cerrados	-11.355
dicó	-11.3553
▁invent	-11.3554
▁acepta	-11.3557
▁total	-11.3575
▁wins	-11.3591
▁ciudadano	-11.3593
▁antigua	-11.3593
▁científico	-11.3594
▁knee	-11.3594
▁piense	-11.3596
▁compañero	-11.3596
▁hoja	-11.3598
▁regard	-11.3598
▁olvide	-11.3599
ura	-11.3605
▁daba	-11.3605
▁fr	-11.3612
▁salad	-11.3616
▁arruin	-11.3621
led	-11.3622
▁remembered	-11.3624
rry	-11.3633
▁molestar	-11.3639
▁funcionar	-11.3643
▁And	-11.3647
cio	-11.3652
▁ho	-11.3653
▁plants	-11.3657
▁parecer	-11.3664
▁poemas	-11.3678
▁comas	-11.3683
▁actu	-11.3702
▁pet	-11.3712
▁mismos	-11.372
▁strangers	-11.3737
▁revis	-11.3738
low	-11.3743
capaz	-11.3746
R	-11.3746
▁muere	-11.3747
cé	-11.376
▁incident	-11.3767
▁señal	-11.3774
▁adapt	-11.3777
▁manage	-11.3779
▁divorce	-11.378
▁damage	-11.378
ang	-11.3783
▁walks	-11.3791
▁pesa	-11.3794
▁clara	-11.3794
▁major	-11.3797
▁command	-11.3797
▁Asegúr	-11.3797
▁Empezó	-11.3797
▁Suddenly	-11.3797
▁achieve	-11.3797
▁bullet	-11.3797
▁cajón	-11.3797
▁conference	-11.3797
▁cuarenta	-11.3797
▁efecto	-11.3797
▁elecciones	-11.3797
▁embargo	-11.3797
▁evidence	-11.3797
▁flag	-11.3797
▁helicopter	-11.3797
▁helicóptero	-11.3797
▁hierro	-11.3797
▁inocencia	-11.3797
▁italiano	-11.3797
▁nevando	-11.3797
▁percent	-11.3797
▁principiante	-11.3797
▁screen	-11.3797
▁soporto	-11.3797
▁strength	-11.3797
▁switch	-11.3797
▁vosotras	-11.3797
▁dessert	-11.3797
▁electrónico	-11.3797
▁pesadilla	-11.3797
▁thick	-11.3797
▁average	-11.3797
▁strict	-11.3797
▁ratón	-11.3797
▁crisis	-11.3797
▁horror	-11.3797
▁instituto	-11.3797
▁occurred	-11.3797
▁perdón	-11.3797
▁mosquito	-11.3797
▁emocionante	-11.3797
▁fijamente	-11.3797
▁perdiendo	-11.3798
▁Learn	-11.3798
▁Check	-11.3798
▁lujo	-11.3798
▁bandera	-11.3798
▁patio	-11.3798
▁complicado	-11.3798
▁pluma	-11.3798
▁brillante	-11.3799
▁dust	-11.3799
▁hunting	-11.38
▁Ponga	-11.38
▁horne	-11.38
▁pesada	-11.38
▁nap	-11.3801
▁adelantado	-11.3801
▁adorable	-11.3801
▁zorro	-11.3802
▁viera	-11.3802
▁muchísimo	-11.3802
▁órdenes	-11.3803
▁removed	-11.3804
▁olor	-11.3804
▁Veamos	-11.3806
▁pants	-11.3808
▁reply	-11.3809
▁concerned	-11.3813
▁llamando	-11.3815
▁azules	-11.3821
▁llamarme	-11.3826
ería	-11.3826
▁trate	-11.3831
▁raw	-11.3832
▁Trabajo	-11.3841
▁miraba	-11.3841
ors	-11.3844
▁postre	-11.3845
▁accidents	-11.3846
▁león	-11.3851
▁lento	-11.3854
▁closer	-11.386
▁bebido	-11.3861
▁recuerdas	-11.3864
▁tomará	-11.3866
▁utilizar	-11.3868
▁legal	-11.3871
▁sangra	-11.3873
▁danced	-11.3877
ete	-11.3879
▁firm	-11.3881
▁touched	-11.3885
▁experimento	-11.3886
▁computers	-11.3887
▁vienen	-11.3892
▁watches	-11.3904
ap	-11.3907
▁pasamos	-11.3909
▁contratar	-11.3924
old	-11.3925
ship	-11.3928
▁quedaba	-11.3931
▁ciudades	-11.3931
▁creen	-11.3933
▁lately	-11.3935
▁appearance	-11.3936
▁meters	-11.3946
▁fork	-11.3953
ual	-11.3954
▁protest	-11.3956
▁twins	-11.3957
▁corr	-11.3979
adora	-11.3981
▁prest	-11.3983
▁earns	-11.3994
▁viaja	-11.3997
▁fuente	-11.3999
▁shoot	-11.4008
▁Plane	-11.4015
▁closet	-11.4016
▁Man	-11.402
▁Gra	-11.402
▁Comí	-11.4022
▁sleeps	-11.4024
get	-11.4036
▁creas	-11.4036
▁direction	-11.4044
▁medi	-11.4047
▁juguete	-11.4048
▁cerrado	-11.4053
▁shoe	-11.4054
▁podé	-11.4059
▁primos	-11.4059
▁nombres	-11.4059
▁invit	-11.4083
▁fashion	-11.4101
▁planet	-11.4104
▁design	-11.4109
▁discuti	-11.4113
▁earn	-11.4117
▁directo	-11.4127
▁evit	-11.4128
▁Ti	-11.4133
▁cousins	-11.4133
▁iban	-11.4166
▁pilot	-11.4188
▁pasan	-11.42
either	-11.4209
ating	-11.4222
▁wi	-11.4233
▁disappoint	-11.4238
▁shout	-11.4238
▁cover	-11.424
▁servir	-11.4241
▁rojas	-11.4246
▁promises	-11.4246
▁hacerle	-11.4248
▁jam	-11.4251
▁religion	-11.4252
▁Shakespeare	-11.4252
▁acceso	-11.4252
▁actriz	-11.4252
▁adecuado	-11.4252
▁ansioso	-11.4252
▁apellido	-11.4252
▁bribe	-11.4252
▁explosion	-11.4252
▁furioso	-11.4252
▁gloves	-11.4252
▁levanto	-11.4252
▁líder	-11.4252
▁obsequio	-11.4252
▁politics	-11.4252
▁privado	-11.4252
▁profesional	-11.4252
▁puppy	-11.4252
▁register	-11.4252
▁reputation	-11.4252
▁thirteen	-11.4252
▁whistle	-11.4252
▁guantes	-11.4252
▁method	-11.4252
▁nonsense	-11.4252
▁ocean	-11.4252
▁poker	-11.4252
▁posición	-11.4252
▁uvas	-11.4252
▁court	-11.4252
▁false	-11.4252
▁civil	-11.4252
▁temper	-11.4252
▁contrario	-11.4252
▁double	-11.4252
▁averg	-11.4252
▁termine	-11.4252
▁refrigerador	-11.4252
▁rabbit	-11.4252
▁ladder	-11.4252
▁prohibited	-11.4252
▁defend	-11.4252
▁suave	-11.4252
▁desapareció	-11.4252
▁stake	-11.4252
▁valla	-11.4253
▁sunny	-11.4253
▁impression	-11.4253
▁discussion	-11.4253
▁martes	-11.4253
▁mandó	-11.4253
▁emb	-11.4253
▁enamorada	-11.4253
▁cuidadosamente	-11.4253
▁Brit	-11.4253
▁preferida	-11.4254
▁spell	-11.4254
▁obtuvo	-11.4255
▁Wash	-11.4255
▁escapó	-11.4255
▁apply	-11.4256
▁reasonable	-11.4256
▁u	-11.4256
▁Nara	-11.4256
▁drawer	-11.4256
▁belt	-11.4258
▁busc	-11.4258
▁destroyed	-11.4258
▁construyó	-11.426
▁creció	-11.426
▁mostraré	-11.4261
▁causó	-11.4261
▁granted	-11.4261
▁dificultades	-11.4262
▁vine	-11.4262
▁delayed	-11.4262
▁Hang	-11.4263
▁attractive	-11.4263
▁cage	-11.4264
▁wounded	-11.4267
▁talented	-11.4267
▁goat	-11.4268
▁canceled	-11.427
▁bowl	-11.4272
▁Hablé	-11.4272
▁Trae	-11.4274
▁materna	-11.4276
▁actual	-11.4276
▁sujeto	-11.4278
▁Abre	-11.4279
▁moral	-11.4279
▁sincera	-11.428
▁dile	-11.4283
▁sed	-11.4284
▁ahorrar	-11.429
▁self	-11.4291
vy	-11.4293
▁Entre	-11.4293
▁detenido	-11.4295
▁volvería	-11.4303
▁options	-11.4304
▁viaj	-11.4309
▁suma	-11.431
▁charged	-11.431
▁peanuts	-11.4314
▁modelo	-11.4316
▁saca	-11.4317
▁estacionar	-11.4319
▁orejas	-11.4323
▁lleg	-11.4326
▁seguía	-11.4329
▁degrees	-11.4333
▁camina	-11.4342
▁Sea	-11.4344
▁disco	-11.435
▁snowed	-11.4362
▁cura	-11.4378
▁aplica	-11.4381
▁cho	-11.4399
▁dudas	-11.4399
▁superar	-11.4404
cated	-11.441
▁deny	-11.4414
▁coins	-11.4419
▁existe	-11.4424
▁Ning	-11.4426
▁Spr	-11.4428
▁llevara	-11.4428
▁mías	-11.4433
▁ayudado	-11.4435
▁pasara	-11.4437
▁humanos	-11.4442
▁documentos	-11.445
▁temer	-11.4468
chi	-11.4487
▁Gran	-11.4489
▁march	-11.4497
▁Compart	-11.45
▁newspapers	-11.4515
▁cigarettes	-11.4516
▁llegues	-11.4516
▁amarilla	-11.4525
▁employee	-11.4529
▁prisoner	-11.4532
▁lesson	-11.4536
▁disfrutar	-11.4547
▁lucha	-11.4564
▁participar	-11.4572
▁sur	-11.4572
▁documento	-11.4587
▁importantes	-11.4592
▁vea	-11.4601
▁reasons	-11.4602
▁vano	-11.4606
▁Mar	-11.4609
E	-11.4616
▁asuntos	-11.4617
▁cometa	-11.462
▁estén	-11.464
▁Estará	-11.4644
▁cultura	-11.4646
▁Mu	-11.4647
▁Trabaj	-11.4647
Que	-11.4664
▁seré	-11.4666
▁understands	-11.4674
Sí	-11.4683
▁pray	-11.4695
▁ricos	-11.47
▁scream	-11.4701
ión	-11.4708
frica	-11.4711
▁acostar	-11.4716
▁mostrar	-11.4717
▁Cog	-11.4718
▁col	-11.472
▁h	-11.4722
▁disfraz	-11.4726
▁misterio	-11.4726
▁placer	-11.4727
encilla	-11.4727
ollow	-11.4727
▁Mantén	-11.4727
▁flat	-11.4728
claró	-11.4728
▁Dinner	-11.4728
▁President	-11.4728
▁Tuesday	-11.4728
▁Welcome	-11.4728
▁access	-11.4728
▁almohada	-11.4728
▁ambulance	-11.4728
▁ambulancia	-11.4728
▁apretó	-11.4728
▁asesino	-11.4728
▁atentamente	-11.4728
▁baggage	-11.4728
▁burst	-11.4728
▁character	-11.4728
▁ciervo	-11.4728
▁concurso	-11.4728
▁condujo	-11.4728
▁confuso	-11.4728
▁conocimos	-11.4728
▁construir	-11.4728
▁diamante	-11.4728
▁diamond	-11.4728
▁divertida	-11.4728
▁enfadó	-11.4728
▁ensalada	-11.4728
▁falso	-11.4728
▁impatient	-11.4728
▁inevitable	-11.4728
▁jeans	-11.4728
▁muerta	-11.4728
▁método	-11.4728
▁oppose	-11.4728
▁petróleo	-11.4728
▁responsabilidad	-11.4728
▁rifle	-11.4728
▁sugerencia	-11.4728
▁unexpected	-11.4728
▁uñas	-11.4728
▁vecindario	-11.4728
▁voluntad	-11.4728
▁applie	-11.4728
▁burglar	-11.4728
▁escucho	-11.4728
▁hidden	-11.4728
▁nowhere	-11.4728
▁opciones	-11.4728
▁tesoro	-11.4728
▁conocimiento	-11.4728
▁muriendo	-11.4728
▁ease	-11.4728
▁Llovió	-11.4728
▁package	-11.4728
▁calidad	-11.4728
▁obtener	-11.4728
▁siesta	-11.4728
▁begun	-11.4728
▁science	-11.4728
▁stage	-11.4728
▁electricity	-11.4728
▁Ayúdame	-11.4728
▁comiste	-11.4729
▁electricidad	-11.4729
▁task	-11.4729
▁lavadora	-11.4729
▁properly	-11.4729
▁estalló	-11.473
▁embarazada	-11.473
▁Déjalo	-11.473
▁habitual	-11.473
▁china	-11.473
▁reservation	-11.4731
▁gane	-11.4731
▁wheel	-11.4731
▁prefiero	-11.4732
▁fluently	-11.4732
▁involucrado	-11.4732
▁bromas	-11.4733
▁bigge	-11.4734
▁sewing	-11.4735
▁barking	-11.4736
▁avisar	-11.4736
▁sentarse	-11.4737
▁recogi	-11.4738
▁matado	-11.4738
▁confessed	-11.4738
▁baked	-11.4738
▁smarter	-11.4739
▁murderer	-11.474
▁Tard	-11.474
▁served	-11.4741
▁enseñarme	-11.4742
▁bordo	-11.4744
▁crossing	-11.4746
▁preparing	-11.4747
▁botas	-11.4748
▁farmer	-11.4749
▁echado	-11.4749
▁loan	-11.475
▁olvidaré	-11.475
▁quietly	-11.4755
▁compare	-11.4755
▁adopted	-11.4756
▁cable	-11.4757
▁Vos	-11.4757
▁incidente	-11.4761
▁planted	-11.4762
▁alimenta	-11.4762
▁classmates	-11.4763
▁Start	-11.4766
bla	-11.4767
▁siga	-11.477
▁scare	-11.4771
▁mark	-11.4773
▁aliento	-11.4776
▁haremos	-11.4776
▁colores	-11.4778
▁odiaba	-11.4787
▁seats	-11.4788
▁perd	-11.4793
▁aparte	-11.4795
▁closes	-11.48
ventó	-11.4805
▁Corrí	-11.4805
▁Ki	-11.4813
▁However	-11.4818
▁bebo	-11.4823
▁reporte	-11.4826
▁grados	-11.4833
▁estuvieron	-11.4841
▁rog	-11.486
▁wishes	-11.4862
▁presentó	-11.4876
▁echo	-11.4876
ense	-11.489
▁comentarios	-11.4904
▁monedas	-11.4904
▁balance	-11.4911
▁weapons	-11.4914
▁sorprende	-11.4915
▁llegara	-11.4919
▁aula	-11.4929
▁quieto	-11.4954
▁maneja	-11.4956
He	-11.4961
▁adult	-11.4974
Habla	-11.4976
▁sales	-11.499
▁burn	-11.4997
▁facts	-11.5004
ack	-11.5008
ank	-11.5013
▁mejilla	-11.502
▁deuda	-11.5021
▁altos	-11.5022
▁sl	-11.5023
▁político	-11.5024
▁acuerda	-11.5027
▁alguno	-11.503
taron	-11.5032
proxima	-11.5032
eza	-11.5033
▁americano	-11.5035
▁aquello	-11.5045
▁volví	-11.5056
per	-11.5064
▁aprendí	-11.5073
▁presente	-11.509
▁nu	-11.5096
▁metros	-11.5109
▁sings	-11.511
áramos	-11.5113
▁ocurre	-11.5113
▁limpi	-11.5115
▁resolvi	-11.5124
▁humano	-11.5145
▁pig	-11.5145
▁alcanz	-11.5146
▁causes	-11.5149
▁content	-11.515
mu	-11.5159
▁doubts	-11.5167
▁miente	-11.5178
▁jugaba	-11.5179
▁Creí	-11.518
Yes	-11.5192
▁Fa	-11.5192
vale	-11.5193
▁economic	-11.5194
▁poet	-11.5196
▁concentr	-11.5196
▁disgust	-11.5198
▁páginas	-11.5202
▁historias	-11.521
Hace	-11.5213
▁flood	-11.5214
▁frame	-11.5214
▁aprobar	-11.5217
ísimo	-11.5221
▁salí	-11.5225
▁capacidad	-11.5227
hoose	-11.5228
▁April	-11.5228
▁California	-11.5228
▁Francisco	-11.5228
▁Greek	-11.5228
▁Hawái	-11.5228
▁absence	-11.5228
▁amabilidad	-11.5228
▁amenaza	-11.5228
▁archivo	-11.5228
▁arriving	-11.5228
▁boots	-11.5228
▁ceiling	-11.5228
▁césped	-11.5228
▁disagree	-11.5228
▁ejército	-11.5228
▁encargar	-11.5228
▁engaged	-11.5228
▁espectáculo	-11.5228
▁evidencia	-11.5228
▁exhausto	-11.5228
▁explosión	-11.5228
▁falsa	-11.5228
▁families	-11.5228
▁fridge	-11.5228
▁gentil	-11.5228
▁heavily	-11.5228
▁impresionado	-11.5228
▁infancia	-11.5228
▁insurance	-11.5228
▁jaula	-11.5228
▁jogging	-11.5228
▁límite	-11.5228
▁malentendido	-11.5228
▁mordió	-11.5228
▁motorcycle	-11.5228
▁objeto	-11.5228
▁ocasión	-11.5228
▁outstanding	-11.5228
▁pimienta	-11.5228
▁political	-11.5228
▁pregnant	-11.5228
▁quality	-11.5228
▁reputación	-11.5228
▁rostro	-11.5228
▁secundaria	-11.5228
▁sensitive	-11.5228
▁sociedad	-11.5228
▁solucionar	-11.5228
▁treasure	-11.5228
▁typhoon	-11.5228
▁unusual	-11.5228
▁committee	-11.5228
▁deposit	-11.5228
▁priest	-11.5228
▁barata	-11.5228
▁stove	-11.5228
▁magic	-11.5228
▁nuclear	-11.5228
▁mentido	-11.5228
▁blanket	-11.5228
▁tejado	-11.5228
▁export	-11.5228
▁enojar	-11.5228
▁lucía	-11.5228
▁cities	-11.5228
▁sabia	-11.5228
▁Conocí	-11.5228
▁investigación	-11.5228
▁muero	-11.5229
▁picante	-11.5229
▁tinta	-11.5229
▁bienvenida	-11.5229
▁pago	-11.5229
▁estanque	-11.5229
▁shake	-11.5229
▁imaginación	-11.5229
▁melodía	-11.5229
▁Poca	-11.5229
Creé	-11.5229
▁Poco	-11.5229
▁autoridad	-11.5229
▁distinguish	-11.5229
▁babbling	-11.523
▁bailando	-11.523
▁entregó	-11.523
▁carpet	-11.523
▁importance	-11.523
▁sabor	-11.5231
▁elegido	-11.5231
▁source	-11.5232
▁preocuparse	-11.5232
▁valuable	-11.5232
▁cuente	-11.5232
▁restless	-11.5232
▁taxes	-11.5233
▁interesada	-11.5233
▁bitter	-11.5233
▁issue	-11.5234
▁Tras	-11.5234
▁obligado	-11.5237
▁ignoró	-11.5238
▁pasear	-11.5238
▁collecting	-11.5238
ula	-11.5239
year	-11.524
▁fan	-11.524
▁presión	-11.524
▁pida	-11.5242
▁separated	-11.5243
▁shouted	-11.5243
▁insisted	-11.5243
▁esquí	-11.5244
▁torre	-11.5249
▁debate	-11.525
▁shorter	-11.5251
▁hired	-11.5251
▁agradeci	-11.5253
▁oldest	-11.5255
▁presents	-11.5256
▁cero	-11.5258
▁podré	-11.5258
▁minor	-11.526
▁Korean	-11.5262
▁contarte	-11.5263
▁dejo	-11.5264
▁casarme	-11.5269
▁rented	-11.527
▁encontraron	-11.5271
▁nerviosa	-11.5272
▁volumen	-11.5275
▁height	-11.5276
▁sour	-11.5278
▁closely	-11.5281
▁imagined	-11.5281
▁talla	-11.5284
▁tales	-11.5285
char	-11.5289
rain	-11.5296
▁fiar	-11.5299
Su	-11.5302
▁lent	-11.5303
Deja	-11.5305
▁lamento	-11.5307
▁dejarlo	-11.5314
▁llevaré	-11.5326
pel	-11.5328
▁Busqu	-11.5337
▁ayudarlo	-11.5341
ize	-11.5342
▁alimentos	-11.535
▁dreaming	-11.5356
▁Pa	-11.5365
▁Love	-11.5374
way	-11.5381
▁vacas	-11.5383
▁asusta	-11.5386
▁knowing	-11.5387
▁confund	-11.5393
▁Bell	-11.5411
▁normas	-11.5424
▁criad	-11.5427
▁confirm	-11.5433
▁sobrevivir	-11.5442
▁alegre	-11.5445
▁loose	-11.5447
▁busca	-11.5468
▁sentados	-11.5468
▁veas	-11.5471
▁resulta	-11.5487
▁consult	-11.5488
▁comete	-11.5493
▁efforts	-11.5499
▁rate	-11.5502
▁product	-11.5503
▁seria	-11.5515
▁ink	-11.5519
▁propios	-11.5521
▁bro	-11.5528
▁Escuch	-11.5531
▁Compr	-11.5535
▁vete	-11.5536
▁rosas	-11.5542
▁pobres	-11.5542
dores	-11.5546
▁tourist	-11.5551
▁tune	-11.5551
▁ésta	-11.5552
▁weapon	-11.5552
tiendo	-11.5553
▁norma	-11.5556
▁roll	-11.5557
▁upon	-11.5563
▁firme	-11.5565
lor	-11.5569
▁necesite	-11.5571
▁abandon	-11.5577
aría	-11.5589
▁cares	-11.5594
▁roses	-11.5596
▁periódicos	-11.5597
▁mono	-11.5627
▁derechos	-11.5629
▁meta	-11.5629
▁Aquell	-11.5631
▁creí	-11.5633
▁scar	-11.5641
▁divorci	-11.5644
▁Ech	-11.5659
▁limit	-11.5665
▁Canadians	-11.5672
▁claims	-11.5673
▁reunir	-11.5678
▁hum	-11.5688
talo	-11.5689
▁critic	-11.5695
▁Dr	-11.5701
▁ignora	-11.5702
darnos	-11.5703
podría	-11.5703
What	-11.5703
▁volume	-11.5705
▁du	-11.5707
▁Any	-11.5714
▁decent	-11.5721
▁consume	-11.5722
▁super	-11.5724
▁cough	-11.5727
▁sábados	-11.5728
mento	-11.5729
▁bra	-11.5729
line	-11.5734
▁approve	-11.5737
▁resign	-11.574
▁lastimar	-11.5743
▁fren	-11.5747
éjame	-11.5751
ged	-11.5751
▁interpret	-11.5752
▁object	-11.5753
▁obvio	-11.5753
▁addict	-11.5754
▁occasion	-11.5754
▁Apreci	-11.5754
▁Fortunately	-11.5754
▁Juan	-11.5754
▁Muéstrame	-11.5754
▁adicto	-11.5754
▁almorzando	-11.5754
▁apoyó	-11.5754
▁cuaderno	-11.5754
▁culture	-11.5754
▁deliciosa	-11.5754
▁dieciocho	-11.5754
▁egoísta	-11.5754
▁embajada	-11.5754
▁encender	-11.5754
▁engañar	-11.5754
▁entienda	-11.5754
▁escuché	-11.5754
▁estudió	-11.5754
▁festival	-11.5754
▁fresca	-11.5754
▁harsh	-11.5754
▁hierba	-11.5754
▁hoax	-11.5754
▁hundió	-11.5754
▁instrucciones	-11.5754
▁instructions	-11.5754
▁izquierdo	-11.5754
▁juicio	-11.5754
▁ketchup	-11.5754
▁knowledge	-11.5754
▁maestra	-11.5754
▁martillo	-11.5754
▁nature	-11.5754
▁ocurra	-11.5754
▁pizarra	-11.5754
▁pleasure	-11.5754
▁quarrel	-11.5754
▁retrasó	-11.5754
▁robber	-11.5754
▁scratch	-11.5754
▁society	-11.5754
▁sombra	-11.5754
▁squeeze	-11.5754
▁sunglasses	-11.5754
▁target	-11.5754
▁temporada	-11.5754
▁unfair	-11.5754
▁universitario	-11.5754
▁upstairs	-11.5754
▁época	-11.5754
▁adonde	-11.5754
▁ausencia	-11.5754
▁escolar	-11.5754
▁rough	-11.5754
▁silver	-11.5754
▁vestida	-11.5754
▁angel	-11.5754
▁conceited	-11.5754
▁hablé	-11.5754
▁tifón	-11.5754
▁drew	-11.5754
▁coincidence	-11.5754
▁policy	-11.5754
▁row	-11.5754
▁práctica	-11.5754
▁superior	-11.5754
▁descubierto	-11.5754
▁Play	-11.5754
▁paliza	-11.5754
▁mystery	-11.5754
▁coraje	-11.5754
▁sheep	-11.5754
▁swear	-11.5754
▁abril	-11.5754
▁block	-11.5754
▁entrance	-11.5755
▁selfish	-11.5755
▁income	-11.5755
▁tontería	-11.5755
▁scenery	-11.5755
▁Fuma	-11.5755
▁oeste	-11.5755
▁nací	-11.5755
▁habitaciones	-11.5755
▁Cuent	-11.5755
▁advirtió	-11.5755
▁cigarro	-11.5755
▁imagination	-11.5755
▁permitido	-11.5755
▁Enséñame	-11.5755
▁tenedor	-11.5755
▁educado	-11.5755
▁nation	-11.5755
▁ventaja	-11.5756
▁odd	-11.5756
▁Quien	-11.5756
▁recientemente	-11.5756
▁presence	-11.5756
▁level	-11.5756
▁suitable	-11.5756
▁muro	-11.5756
▁honestidad	-11.5757
▁ambas	-11.5757
▁professional	-11.5757
▁ése	-11.5757
▁arrojó	-11.5758
▁crema	-11.576
▁cheaper	-11.5761
▁respirar	-11.5761
Vendrá	-11.5761
▁partió	-11.5761
▁cazar	-11.5761
▁mostrarte	-11.5762
▁barba	-11.5763
▁arrepiento	-11.5763
▁caminaba	-11.5764
▁metido	-11.5764
▁bowed	-11.5764
▁Tendrá	-11.5764
▁rescued	-11.5766
▁captur	-11.5766
▁miraron	-11.5766
fore	-11.5767
▁peligrosa	-11.5769
▁progreso	-11.5769
▁fairly	-11.5771
▁marchó	-11.5772
▁framed	-11.5772
▁sellos	-11.5773
▁shocked	-11.5775
▁engineer	-11.5775
▁tiende	-11.5776
▁quarter	-11.5778
▁soul	-11.5779
▁personally	-11.5779
▁mires	-11.5781
▁Querría	-11.5781
▁disparar	-11.5782
▁chill	-11.5782
▁intended	-11.5784
▁acusa	-11.5794
▁adjust	-11.5794
▁humo	-11.5794
▁quemó	-11.5797
▁crecí	-11.5798
▁tiro	-11.5804
▁fuese	-11.5804
▁ayudando	-11.5813
▁herramientas	-11.5815
▁posee	-11.5825
▁sucede	-11.5827
▁quejó	-11.5827
▁chosen	-11.5828
▁pasaba	-11.5828
▁leerlo	-11.5842
▁comía	-11.5844
▁preciosa	-11.5844
▁grades	-11.5849
ier	-11.5852
▁rely	-11.5856
▁saludó	-11.5861
nzó	-11.5865
▁cri	-11.5866
▁turistas	-11.5871
▁gemelos	-11.5882
▁despertador	-11.5889
▁fate	-11.5889
▁oso	-11.589
▁solar	-11.5891
▁guarda	-11.5892
▁players	-11.5897
▁sonando	-11.5902
▁terms	-11.5905
V	-11.5909
▁serpientes	-11.5916
▁demand	-11.5918
ario	-11.5932
▁grown	-11.5933
ily	-11.5939
▁shed	-11.5944
▁Abra	-11.5946
▁dim	-11.5961
▁pruebas	-11.5962
▁americanos	-11.5972
▁ignorar	-11.5974
costó	-11.5977
▁derram	-11.5983
ensa	-11.601
▁hablamos	-11.6012
puesto	-11.6021
Fuiste	-11.6039
▁vend	-11.6047
▁elephant	-11.6064
▁tantos	-11.6073
cle	-11.6089
▁cha	-11.6094
▁coin	-11.6099
▁custom	-11.6099
▁papers	-11.6099
▁curtain	-11.6104
▁rodilla	-11.6105
▁cigarrillo	-11.6106
▁comentario	-11.6108
▁moneda	-11.6108
▁stamp	-11.6109
nswer	-11.6112
▁aguantar	-11.6113
▁twin	-11.6121
ered	-11.6129
▁harás	-11.6134
▁sucio	-11.6136
ándome	-11.6139
▁repar	-11.6147
▁Encontrar	-11.6147
▁trabajan	-11.6151
▁Hablar	-11.6154
▁North	-11.6157
▁cargar	-11.6165
Era	-11.6167
zco	-11.6183
▁dig	-11.6191
▁aterriz	-11.6195
▁extraños	-11.6202
▁hi	-11.6203
guió	-11.621
▁budge	-11.6214
▁aside	-11.6215
▁pop	-11.6237
▁acompañ	-11.6238
mail	-11.626
▁Vol	-11.6263
cantaría	-11.6269
tendremos	-11.6271
▁tip	-11.6271
▁Part	-11.6284
▁calles	-11.6285
▁increase	-11.6292
▁shame	-11.6293
▁sweat	-11.6294
▁poison	-11.6295
▁volunteer	-11.6296
▁comparti	-11.6298
▁base	-11.6301
▁Amo	-11.6301
▁triunfar	-11.6302
▁divertir	-11.6304
▁atropell	-11.6306
▁entradas	-11.6306
▁tumba	-11.6308
Ello	-11.6309
▁traduj	-11.6309
▁brief	-11.631
construido	-11.631
▁Afortunadamente	-11.631
▁Enciend	-11.631
▁Escriba	-11.631
▁Everest	-11.631
▁Rusia	-11.631
▁comité	-11.631
▁conociera	-11.631
▁cálido	-11.631
▁despedida	-11.631
▁diecisiete	-11.631
▁engañó	-11.631
▁garbage	-11.631
▁gasolina	-11.631
▁hockey	-11.631
▁inconsciente	-11.631
▁influence	-11.631
▁milagro	-11.631
▁mouse	-11.631
▁mutuamente	-11.631
▁oxígeno	-11.631
▁password	-11.631
▁promotion	-11.631
▁química	-11.631
▁reducir	-11.631
▁resort	-11.631
▁revés	-11.631
▁sonríe	-11.631
▁stubborn	-11.631
▁tabaco	-11.631
▁universo	-11.631
▁unreliable	-11.631
▁víctima	-11.631
▁Falta	-11.631
▁Kobe	-11.631
▁Pregunta	-11.631
▁South	-11.631
▁seventeen	-11.631
▁spade	-11.631
▁universe	-11.631
▁drowning	-11.631
▁apology	-11.631
▁suceda	-11.631
▁terrific	-11.631
▁parcial	-11.631
▁pillow	-11.631
▁trunk	-11.631
▁dormida	-11.631
▁manners	-11.631
▁deprimido	-11.631
▁periodista	-11.631
▁sabés	-11.631
▁batería	-11.631
▁discutiendo	-11.631
▁Pása	-11.631
▁blackboard	-11.631
▁hugged	-11.631
▁replace	-11.631
▁rob	-11.6311
▁estantería	-11.6311
▁ángel	-11.6311
▁tinto	-11.6311
▁wide	-11.6311
▁observando	-11.6311
▁contraseña	-11.6312
▁robando	-11.6312
▁hammer	-11.6312
biste	-11.6313
imít	-11.6313
▁partida	-11.6313
▁bleeding	-11.6313
▁threatened	-11.6313
▁abandonado	-11.6313
▁reina	-11.6314
▁soft	-11.6314
▁released	-11.6314
▁optimista	-11.6314
▁salieron	-11.6315
▁sonriendo	-11.6315
▁caído	-11.6315
▁amas	-11.6316
▁rise	-11.6316
▁disguised	-11.6316
pped	-11.6317
▁mission	-11.6317
▁incómodo	-11.6318
▁costará	-11.6318
▁caminó	-11.6319
▁arrogante	-11.632
▁Santa	-11.6321
▁Primero	-11.6322
▁Esperaré	-11.6323
▁dating	-11.6323
▁lección	-11.6324
urió	-11.6324
▁creep	-11.6326
▁approved	-11.6328
▁mancha	-11.6328
▁jugadores	-11.6329
▁heater	-11.6331
▁suffering	-11.6333
▁riendo	-11.6333
▁naturales	-11.6334
▁Haría	-11.6335
▁computadores	-11.6336
▁spli	-11.6336
▁Vosotr	-11.634
▁evento	-11.634
▁moderna	-11.6345
▁decente	-11.6345
▁poeta	-11.6346
▁Christian	-11.6347
dical	-11.6347
▁logro	-11.6348
ece	-11.6351
▁yard	-11.6351
▁acompañar	-11.6352
▁Camina	-11.6356
▁painful	-11.6361
▁kilos	-11.6363
▁vuestros	-11.6365
▁informed	-11.6366
▁cómoda	-11.6367
▁Jo	-11.6376
▁mata	-11.6378
▁senté	-11.6378
ial	-11.6379
▁labios	-11.6387
▁treaty	-11.6391
▁aparcar	-11.6391
▁pasarme	-11.6393
▁infla	-11.6397
▁llevará	-11.6401
▁fog	-11.6407
▁pasaría	-11.6407
gué	-11.6409
▁spi	-11.6409
▁incorrecta	-11.642
▁decirlo	-11.6425
▁feo	-11.6427
▁celebrate	-11.6434
▁hagamos	-11.6437
▁comprarse	-11.6455
▁Conoce	-11.646
Vendré	-11.6464
▁abuse	-11.647
▁celebra	-11.6474
▁Mari	-11.6475
Ve	-11.6476
cado	-11.6477
Ves	-11.6477
▁conejos	-11.6481
▁snakes	-11.6481
▁Lee	-11.6481
ili	-11.6482
▁permanecer	-11.6491
▁perdier	-11.6492
▁gustado	-11.6493
ali	-11.6502
▁considera	-11.6508
▁clientes	-11.6509
tions	-11.6511
▁gu	-11.6511
▁éstas	-11.6529
▁necesites	-11.653
▁products	-11.6531
▁botellas	-11.6543
éramos	-11.6552
▁places	-11.6554
▁bottles	-11.6579
▁extrañar	-11.658
▁considerar	-11.6601
edades	-11.6611
▁extranjeras	-11.6613
▁chistes	-11.6615
▁dependen	-11.6633
▁tipos	-11.6663
▁mat	-11.6664
▁Pid	-11.6674
▁utiliza	-11.6675
▁hoped	-11.6688
▁cliente	-11.6703
▁fac	-11.6707
▁dollar	-11.6707
▁cabe	-11.6718
▁colors	-11.6721
▁Corri	-11.6723
dad	-11.6727
via	-11.6736
cked	-11.6741
▁Aprend	-11.6745
▁atrapar	-11.6754
ping	-11.6754
▁resultar	-11.6764
▁seco	-11.6765
tacó	-11.6766
▁Ku	-11.6769
bout	-11.6777
ccidental	-11.6777
▁cop	-11.6781
Los	-11.6786
▁lados	-11.6786
▁tela	-11.679
▁confi	-11.6791
▁exception	-11.6794
illas	-11.6806
pidieron	-11.6808
▁deer	-11.6811
▁puñ	-11.6824
▁Viaj	-11.6832
▁mon	-11.6835
▁decepcionar	-11.6836
▁stepp	-11.6839
How	-11.6847
voted	-11.6848
▁Russia	-11.685
Sal	-11.6854
▁encuentras	-11.6858
▁ch	-11.686
Nos	-11.6862
five	-11.6863
▁apresur	-11.6864
Come	-11.6866
▁gang	-11.6867
▁wealth	-11.687
▁hug	-11.6872
▁collect	-11.6872
▁boil	-11.6872
▁relativ	-11.6876
▁separate	-11.6879
▁aim	-11.6886
▁blow	-11.6887
▁habilidad	-11.689
▁thorough	-11.6891
▁prince	-11.6894
▁interrump	-11.6894
▁rápida	-11.6895
▁joy	-11.6896
ídele	-11.6897
▁apoya	-11.6897
▁delay	-11.6897
emember	-11.6898
▁affect	-11.6898
▁skate	-11.6898
ámonos	-11.6898
▁affair	-11.6898
▁simpático	-11.6898
eligió	-11.6898
▁Biblia	-11.6898
▁Mundial	-11.6898
▁aburrida	-11.6898
▁actitud	-11.6898
▁anteojos	-11.6898
▁attitude	-11.6898
▁auténtico	-11.6898
▁challenge	-11.6898
▁conclusion	-11.6898
▁construcción	-11.6898
▁cottage	-11.6898
▁desastre	-11.6898
▁desierta	-11.6898
▁downstairs	-11.6898
▁exterior	-11.6898
▁financial	-11.6898
▁flashlight	-11.6898
▁funcionó	-11.6898
▁innocence	-11.6898
▁journalist	-11.6898
▁junk	-11.6898
▁lastimó	-11.6898
▁lápices	-11.6898
▁narrow	-11.6898
▁opposite	-11.6898
▁promedio	-11.6898
▁príncipe	-11.6898
▁pálido	-11.6898
▁reduce	-11.6898
▁regreso	-11.6898
▁repugnante	-11.6898
▁scissors	-11.6898
▁soñando	-11.6898
▁trigo	-11.6898
▁whale	-11.6898
▁preferiría	-11.6898
▁stock	-11.6898
▁kite	-11.6898
▁sensación	-11.6898
▁trigger	-11.6898
▁confesó	-11.6898
▁harina	-11.6898
▁crack	-11.6898
▁zona	-11.6898
▁condición	-11.6898
▁hunch	-11.6898
▁nearby	-11.6898
▁slam	-11.6898
▁anterior	-11.6898
▁demostrar	-11.6898
▁nightmare	-11.6898
▁stomachache	-11.6898
▁Perdone	-11.6898
▁strike	-11.6898
▁sirvió	-11.6898
▁horario	-11.6898
▁conjunto	-11.6898
▁miracle	-11.6898
▁barber	-11.6898
▁desaparecido	-11.6898
▁traslad	-11.6898
▁atento	-11.6898
▁remarkable	-11.6898
▁Viene	-11.6898
▁sabio	-11.6898
▁merecía	-11.6899
▁lavó	-11.6899
▁revel	-11.6899
▁frecuentemente	-11.6899
▁purse	-11.6899
▁authority	-11.6899
▁slice	-11.6899
▁decidiste	-11.6899
▁antig	-11.6899
▁spot	-11.6899
▁soltera	-11.6899
▁pozo	-11.6899
▁pavo	-11.6899
▁Generally	-11.6899
▁Siéntate	-11.6899
▁reward	-11.6899
▁Merece	-11.6899
▁pipe	-11.6899
▁operation	-11.6899
▁secó	-11.69
▁invention	-11.69
▁acondicionado	-11.69
▁confidence	-11.69
▁avanz	-11.69
▁rejected	-11.69
▁planned	-11.69
▁teenager	-11.69
▁appetite	-11.69
▁eyesight	-11.69
▁estilo	-11.69
▁sopl	-11.6901
▁Dese	-11.6901
▁Bible	-11.6901
▁desgracia	-11.6901
▁lamp	-11.6902
▁gastos	-11.6902
ities	-11.6903
▁Seguí	-11.6903
▁pronounce	-11.6903
▁defense	-11.6903
▁informado	-11.6903
▁assure	-11.6903
▁Cuéntame	-11.6904
▁furious	-11.6904
▁happier	-11.6904
▁mostrarme	-11.6905
▁Frankly	-11.6905
▁irrit	-11.6905
▁automobile	-11.6905
▁crudo	-11.6906
▁invitaron	-11.6906
▁proof	-11.6906
▁swam	-11.6906
▁Price	-11.6907
▁ayudé	-11.6907
▁Perdi	-11.6909
▁micro	-11.6909
▁explicarlo	-11.691
▁boiling	-11.691
▁sweating	-11.6911
▁mentiras	-11.6912
▁Cerr	-11.6913
▁cogido	-11.6913
▁burning	-11.6913
▁sandwiches	-11.6913
▁screamed	-11.6915
▁lloverá	-11.6916
▁sincero	-11.6916
▁pondrá	-11.6918
▁preguntarte	-11.692
▁conocerte	-11.692
▁balde	-11.6922
▁desconocido	-11.6924
▁pasaste	-11.6924
▁apetece	-11.693
out	-11.693
▁enseñaré	-11.6933
▁Pay	-11.6934
▁tonta	-11.6938
▁ponerme	-11.6939
▁avoided	-11.6944
▁nodded	-11.6946
dí	-11.6948
▁uniforme	-11.6949
land	-11.695
▁malos	-11.6952
▁crowded	-11.6953
▁participate	-11.6955
▁checked	-11.6956
▁suicidar	-11.6957
▁Y	-11.6966
▁cochera	-11.6966
▁dominar	-11.697
▁influencia	-11.6974
▁Hand	-11.6991
▁violent	-11.6997
▁breaking	-11.6999
▁yendo	-11.7003
▁encontrarte	-11.7008
▁coches	-11.7009
▁juegos	-11.701
tand	-11.7015
▁daría	-11.7023
encia	-11.7027
▁officer	-11.703
▁particip	-11.703
njoy	-11.7039
Pensá	-11.7045
▁cl	-11.7048
▁juegan	-11.7057
▁acostumbr	-11.7058
▁acción	-11.7067
▁parking	-11.7071
▁prepara	-11.7076
▁cave	-11.7078
rían	-11.708
▁adultos	-11.7095
▁asegur	-11.7097
▁Veni	-11.7106
▁sienten	-11.7125
▁alcanza	-11.7126
▁conté	-11.7127
▁Dog	-11.7133
irió	-11.7135
▁osos	-11.7141
▁aman	-11.7143
▁reconocer	-11.7143
▁amarillas	-11.7157
▁trabaje	-11.718
▁knees	-11.7182
▁científicos	-11.7182
▁gifts	-11.7185
▁gi	-11.7187
▁V	-11.7196
▁lovely	-11.7197
▁estudias	-11.7208
▁tires	-11.7213
▁Car	-11.7214
▁Aprender	-11.7224
▁Cu	-11.7229
▁Encontra	-11.7239
illo	-11.7247
▁gustar	-11.7269
▁distract	-11.727
▁salgas	-11.7273
▁Busc	-11.7279
▁jobs	-11.7284
▁asientos	-11.7288
▁gui	-11.7293
▁firma	-11.7302
▁dare	-11.7304
▁accord	-11.7305
▁Cree	-11.7307
▁vegetarian	-11.7313
▁understanding	-11.7317
eño	-11.7318
▁cortina	-11.7319
▁cheque	-11.7321
▁ghost	-11.7322
▁detalle	-11.7323
▁ayud	-11.7328
▁rechazar	-11.7331
▁sab	-11.7338
▁pages	-11.735
▁descans	-11.7352
▁fuertes	-11.7354
▁Vivi	-11.7357
iente	-11.7358
▁tire	-11.7363
cy	-11.7363
▁trains	-11.7364
▁adulto	-11.738
▁meals	-11.7389
ions	-11.74
leaned	-11.7404
aje	-11.7416
udo	-11.7427
▁bolsillos	-11.7428
ite	-11.7434
endremos	-11.7444
cierto	-11.7446
▁pockets	-11.7455
▁supe	-11.746
▁revistas	-11.7468
▁Camin	-11.7471
Pero	-11.7472
▁entendí	-11.7479
▁magazines	-11.7481
▁maletas	-11.7481
▁Mont	-11.7483
▁Compra	-11.7486
volvió	-11.7488
▁Hici	-11.7493
▁muchachos	-11.7494
▁pack	-11.7498
▁origin	-11.7499
zed	-11.7503
▁hesitate	-11.7506
▁Pro	-11.7507
▁deliver	-11.7509
▁faint	-11.7509
▁confess	-11.7509
▁convenient	-11.751
▁borde	-11.751
▁Vuelv	-11.7511
irds	-11.7511
▁rendir	-11.7515
▁comercial	-11.7515
▁Déje	-11.7517
ártelo	-11.7519
▁profunda	-11.752
▁colecciona	-11.7521
▁flow	-11.7521
▁veneno	-11.7522
oger	-11.7523
▁conscious	-11.7523
▁effect	-11.7523
▁disparo	-11.7523
▁Halloween	-11.7523
▁January	-11.7523
▁Narita	-11.7523
▁UFO	-11.7523
▁apetito	-11.7523
▁arrastr	-11.7523
▁atravesó	-11.7523
▁cafetería	-11.7523
▁ciega	-11.7523
▁clásica	-11.7523
▁complex	-11.7523
▁conocieron	-11.7523
▁conseguido	-11.7523
▁conseguí	-11.7523
▁crawl	-11.7523
▁cuento	-11.7523
▁decírselo	-11.7523
▁desmayó	-11.7523
▁determine	-11.7523
▁dibujo	-11.7523
▁disculpó	-11.7523
▁ebrio	-11.7523
▁eléctrica	-11.7523
▁falleció	-11.7523
▁further	-11.7523
▁gatillo	-11.7523
▁grifo	-11.7523
▁húmedo	-11.7523
▁independiente	-11.7523
▁individual	-11.7523
▁infantil	-11.7523
▁insectos	-11.7523
▁intérprete	-11.7523
▁leña	-11.7523
▁ligero	-11.7523
▁linterna	-11.7523
▁luggage	-11.7523
▁mobile	-11.7523
▁monkey	-11.7523
▁navidad	-11.7523
▁pajamas	-11.7523
▁patinar	-11.7523
▁pijama	-11.7523
▁poquito	-11.7523
▁punctual	-11.7523
▁pánico	-11.7523
▁recursos	-11.7523
▁religión	-11.7523
▁responsibility	-11.7523
▁romantic	-11.7523
▁rompecabezas	-11.7523
▁siguiendo	-11.7523
▁surrender	-11.7523
▁traicionó	-11.7523
▁translation	-11.7523
▁veloz	-11.7523
▁vencido	-11.7523
▁vídeo	-11.7523
▁Drink	-11.7523
▁eighteen	-11.7523
▁excepcional	-11.7523
▁necesaria	-11.7523
▁Claus	-11.7523
▁Four	-11.7523
▁aceite	-11.7523
▁album	-11.7523
▁assistant	-11.7523
▁comenzado	-11.7523
▁lectura	-11.7523
▁rising	-11.7523
▁desperate	-11.7523
▁screw	-11.7523
▁interior	-11.7523
▁oveja	-11.7523
▁cuchara	-11.7523
▁coincidencia	-11.7523
▁vegetales	-11.7523
▁visible	-11.7523
▁amusing	-11.7523
▁esperé	-11.7523
▁typical	-11.7523
▁Juego	-11.7523
▁corriente	-11.7523
▁exitoso	-11.7523
▁abeja	-11.7523
▁cheered	-11.7523
▁float	-11.7523
▁acciones	-11.7523
▁dozen	-11.7523
▁disaster	-11.7523
▁resuelto	-11.7523
▁pintor	-11.7523
▁cocinero	-11.7523
▁combina	-11.7523
▁competition	-11.7523
▁Tóma	-11.7523
▁amazed	-11.7524
▁Juguemos	-11.7524
▁datos	-11.7524
▁drowned	-11.7524
▁Summer	-11.7524
▁sudando	-11.7524
▁Luna	-11.7524
▁treatment	-11.7524
▁manipula	-11.7524
▁mínimo	-11.7524
▁communicate	-11.7524
udging	-11.7524
▁desocupado	-11.7524
▁directamente	-11.7524
▁"¡	-11.7524
▁tratamiento	-11.7525
▁tranquila	-11.7525
▁salón	-11.7525
▁thrilled	-11.7525
▁safety	-11.7525
▁guía	-11.7526
▁pasaje	-11.7526
▁lenguaje	-11.7526
▁path	-11.7527
▁topic	-11.7527
struc	-11.7527
▁gripe	-11.7527
▁librería	-11.7528
▁quejarse	-11.7528
▁Cuidado	-11.7529
▁sorprendería	-11.753
▁subiendo	-11.753
▁lotería	-11.753
▁encouraged	-11.753
▁deceived	-11.7531
▁enseñando	-11.7532
▁alegría	-11.7532
▁encantado	-11.7533
▁camello	-11.7534
▁soap	-11.7534
▁entré	-11.7535
▁sink	-11.7535
▁ganando	-11.7535
▁Ex	-11.7535
▁unknown	-11.7535
▁personalmente	-11.7535
▁sentamos	-11.7536
▁Prob	-11.7536
▁comúnmente	-11.7537
▁continuó	-11.7537
▁fainted	-11.7537
▁delgado	-11.7537
▁warmer	-11.7537
▁astuto	-11.7538
▁loudly	-11.7539
▁prob	-11.7539
▁Tant	-11.754
▁cloudy	-11.7541
▁cast	-11.7542
▁crush	-11.7542
▁mor	-11.7543
▁gastado	-11.7545
▁painter	-11.7545
▁crashed	-11.7546
▁consiga	-11.7546
▁repeated	-11.7547
▁mudó	-11.7548
▁damaged	-11.7548
▁Walk	-11.7548
▁retired	-11.7549
▁traiga	-11.755
▁pega	-11.7552
▁incorrecto	-11.7556
▁preguntando	-11.7563
▁resistir	-11.7563
manded	-11.7564
▁respetar	-11.7565
▁misión	-11.7569
▁papeles	-11.7573
▁career	-11.7575
▁Ver	-11.7578
▁divorcio	-11.758
▁faith	-11.7583
▁agradezco	-11.7584
▁pis	-11.7587
▁latest	-11.7587
▁completa	-11.7589
▁retire	-11.7596
▁reuni	-11.7601
▁lanza	-11.7606
▁Usa	-11.7611
▁listens	-11.7611
Termina	-11.7612
▁tower	-11.7612
▁encantador	-11.7614
▁Lea	-11.762
▁consecuencias	-11.7623
light	-11.7627
▁Ocurri	-11.7645
▁comprendi	-11.7646
▁beard	-11.7646
▁Par	-11.7653
▁ladra	-11.767
▁ideal	-11.7673
▁trabajador	-11.7674
▁bananas	-11.7677
▁blamed	-11.7682
▁lobos	-11.7704
▁foreigners	-11.7707
▁hijas	-11.7713
▁Mire	-11.7716
ither	-11.7718
▁west	-11.7719
▁comporta	-11.773
▁Esperé	-11.7731
▁luchar	-11.7742
▁seated	-11.7752
▁cigarrillos	-11.7758
▁juntar	-11.7763
ático	-11.7764
▁dejas	-11.7764
▁comprende	-11.7768
▁tourists	-11.7772
▁políticos	-11.7785
▁brilla	-11.7796
▁ocup	-11.7799
▁owes	-11.7805
▁Guarda	-11.7809
▁juguetes	-11.7813
▁sois	-11.7813
▁lawn	-11.7823
▁Cha	-11.7825
▁pienses	-11.7826
misunderstanding	-11.7841
▁golpear	-11.7856
▁desprecia	-11.7864
▁Gan	-11.7867
▁charlar	-11.787
▁chances	-11.7877
▁Wh	-11.7877
▁tapa	-11.788
▁documents	-11.7883
▁quema	-11.7888
▁weigh	-11.7888
▁ocult	-11.789
▁relaja	-11.789
chó	-11.7901
▁abrí	-11.7907
▁letras	-11.7909
ally	-11.7914
▁cups	-11.7916
▁ayudes	-11.7919
▁vaca	-11.7931
▁vives	-11.7944
▁Veng	-11.7948
▁seda	-11.795
omo	-11.7963
▁asustar	-11.7967
▁Th	-11.7973
▁afeit	-11.7977
▁conozca	-11.7983
▁pedazo	-11.7984
▁encuentre	-11.7985
▁politician	-11.7985
▁prisionero	-11.7985
vious	-11.7985
▁sienta	-11.7986
▁snake	-11.7987
▁conejo	-11.7987
▁serpiente	-11.7987
▁fea	-11.8
▁Emp	-11.8004
▁dedic	-11.8004
▁Disfrut	-11.8011
▁escala	-11.8013
ucho	-11.8017
▁crea	-11.8019
▁despertado	-11.8021
▁moto	-11.8029
scribió	-11.8042
torio	-11.8044
▁realizar	-11.805
▁fueras	-11.8051
▁apaga	-11.8059
uesta	-11.8083
▁cru	-11.8095
▁Ka	-11.8102
telo	-11.8119
▁rainy	-11.8124
▁serás	-11.8132
thirty	-11.8139
shirt	-11.8139
Ahora	-11.8139
Where	-11.8139
ace	-11.8142
handed	-11.8144
cera	-11.8147
▁caza	-11.8148
cá	-11.8154
jaste	-11.8162
▁familias	-11.8173
aster	-11.8174
▁repetir	-11.8178
▁retrasa	-11.8181
put	-11.8185
▁negar	-11.8186
▁estuvi	-11.8187
ijiste	-11.8188
▁Depende	-11.819
▁Segund	-11.819
▁aburre	-11.819
▁application	-11.819
▁aprecia	-11.819
▁aprobado	-11.819
▁asintió	-11.819
▁atractiva	-11.819
▁conociste	-11.819
▁culpo	-11.819
▁económico	-11.819
▁eléctrico	-11.819
▁escrita	-11.819
▁exámenes	-11.819
▁fierce	-11.819
▁flour	-11.819
▁forehead	-11.819
▁frigorífico	-11.819
▁glance	-11.819
▁haircut	-11.819
▁handwriting	-11.819
▁harvest	-11.819
▁heladera	-11.819
▁impedir	-11.819
▁independent	-11.819
▁infeliz	-11.819
▁ingeniero	-11.819
▁insects	-11.819
▁ladrones	-11.819
▁magia	-11.819
▁mascota	-11.819
▁médica	-11.819
▁navideña	-11.819
▁niebla	-11.819
▁ochenta	-11.819
▁ordinary	-11.819
▁popcorn	-11.819
▁practicing	-11.819
▁purchase	-11.819
▁pésimo	-11.819
▁recibí	-11.819
▁reconoció	-11.819
▁research	-11.819
▁riqueza	-11.819
▁rotten	-11.819
▁stool	-11.819
▁sucedido	-11.819
▁thumb	-11.819
▁toothpaste	-11.819
▁turkey	-11.819
▁underestimate	-11.819
▁universal	-11.819
▁vehículo	-11.819
▁volleyball	-11.819
▁álbum	-11.819
▁cálida	-11.819
▁desperdicia	-11.819
▁gatito	-11.819
▁circumstances	-11.819
▁sesenta	-11.819
▁Rais	-11.819
▁resume	-11.819
▁spoon	-11.819
▁withdraw	-11.819
▁agudo	-11.819
▁tijeras	-11.819
▁timbre	-11.819
▁muestra	-11.819
▁Esperanto	-11.819
▁audiencia	-11.819
▁stew	-11.819
▁bookstore	-11.819
▁casco	-11.819
▁virus	-11.819
▁tentación	-11.819
▁lottery	-11.819
▁aguanto	-11.819
▁punishment	-11.819
▁grito	-11.819
▁department	-11.819
▁secretary	-11.819
▁bronce	-11.819
▁princesa	-11.819
▁bola	-11.819
▁pink	-11.819
▁otherwise	-11.819
▁Generalmente	-11.819
▁convenc	-11.819
▁Suena	-11.819
▁lightning	-11.819
▁active	-11.8191
▁oxygen	-11.8191
▁prometido	-11.8191
▁pariente	-11.8191
▁wings	-11.8191
▁bici	-11.8191
▁frog	-11.8191
▁powerful	-11.8191
▁track	-11.8191
▁wheat	-11.8191
▁alquiler	-11.8191
▁rió	-11.8191
▁decidieron	-11.8191
▁recomendó	-11.8191
▁Sign	-11.8191
▁encendida	-11.8192
▁ahorros	-11.8192
▁Bienvenido	-11.8192
▁investigando	-11.8192
▁Pres	-11.8192
▁probado	-11.8192
▁exit	-11.8192
▁published	-11.8193
▁rio	-11.8193
▁oven	-11.8194
▁silly	-11.8194
▁desire	-11.8194
▁Dejá	-11.8194
▁bump	-11.8194
▁quedará	-11.8194
▁preocuparme	-11.8194
▁complaints	-11.8195
▁enamoró	-11.8195
▁compone	-11.8195
hrow	-11.8196
▁dish	-11.8196
éndose	-11.8196
▁square	-11.8196
▁distinta	-11.8196
▁trescient	-11.8197
▁mencionó	-11.8197
▁difficulties	-11.8198
▁bajando	-11.8199
▁preparada	-11.82
▁llegada	-11.82
▁beans	-11.8201
▁pretendía	-11.8201
▁cumplido	-11.8202
▁conducta	-11.8203
▁pencils	-11.8203
▁Elige	-11.8206
▁Habrá	-11.8206
▁cedió	-11.821
▁escriba	-11.8211
▁punch	-11.8213
▁escase	-11.8216
▁border	-11.8216
stico	-11.8217
▁insulted	-11.8217
▁admired	-11.8219
▁improved	-11.8219
▁climbing	-11.8223
▁astronauta	-11.8223
▁grita	-11.8224
▁higher	-11.8225
▁resources	-11.8226
▁alérgica	-11.8227
▁contestó	-11.823
▁señora	-11.823
▁instante	-11.823
▁scary	-11.823
▁leyes	-11.823
▁CDs	-11.8232
▁insistió	-11.8232
▁Quit	-11.8233
▁relaxed	-11.8233
▁barrio	-11.8233
▁palo	-11.8234
▁codo	-11.8235
▁ayudarla	-11.8236
▁helpless	-11.8238
▁salvajes	-11.824
itch	-11.824
▁usualmente	-11.8249
Vamos	-11.8253
▁Baja	-11.8253
▁nerves	-11.8254
▁visitors	-11.8256
▁lamentar	-11.8257
▁dancer	-11.8257
Vive	-11.8258
▁llamadas	-11.8262
▁deserved	-11.827
ished	-11.8273
▁vasos	-11.8274
▁lips	-11.8283
▁intentes	-11.8284
▁worrying	-11.8295
▁forty	-11.8304
▁budget	-11.8307
▁Donde	-11.8308
▁humana	-11.8312
▁segundos	-11.8332
▁veras	-11.8334
▁veros	-11.8339
main	-11.835
▁dormía	-11.8354
tuviste	-11.8367
▁velas	-11.8373
▁moderno	-11.8373
▁sabías	-11.8382
▁daughters	-11.8383
signed	-11.8392
▁sientas	-11.8398
▁nails	-11.84
bel	-11.8402
▁Pi	-11.8402
▁esperara	-11.8412
▁cortinas	-11.8413
▁tuyos	-11.842
▁difíciles	-11.8426
▁Indian	-11.8427
▁Salí	-11.8455
▁Add	-11.8456
Si	-11.8464
▁locos	-11.8468
▁adults	-11.8472
▁thanks	-11.848
jaba	-11.8487
▁smokes	-11.8492
▁preocupados	-11.8492
▁Air	-11.8498
▁continu	-11.8499
▁formal	-11.8508
gen	-11.8512
▁showing	-11.8515
▁regards	-11.8515
▁gustaban	-11.8518
▁escaso	-11.8525
uck	-11.8531
▁recibi	-11.8534
▁Ésto	-11.8538
▁mild	-11.8538
▁estacion	-11.8556
▁Ke	-11.8557
▁prefieres	-11.8559
▁pasas	-11.8561
▁tru	-11.8568
▁hablarle	-11.8574
▁usan	-11.8575
▁remains	-11.858
▁trans	-11.8581
rang	-11.8586
▁explic	-11.8588
▁llaman	-11.8613
▁realiza	-11.8616
imed	-11.8618
▁sir	-11.8623
▁Comi	-11.8625
ache	-11.8629
ntó	-11.8647
▁serve	-11.8659
▁estúpidas	-11.8663
▁extend	-11.8664
▁pot	-11.8671
▁baila	-11.8685
▁beg	-11.869
▁liber	-11.8693
▁elefante	-11.8698
▁comment	-11.8699
▁ancianos	-11.87
▁candle	-11.8701
Seguro	-11.8701
▁nail	-11.8701
▁pide	-11.8703
▁crece	-11.8703
▁fantasma	-11.8704
▁droga	-11.8704
nything	-11.8705
▁cookie	-11.8707
edí	-11.871
▁guns	-11.8715
▁foreigner	-11.8716
▁fuerzas	-11.8723
ctually	-11.8726
▁sometime	-11.8726
▁vayan	-11.873
ware	-11.8735
irse	-11.874
▁term	-11.8746
▁suitcases	-11.8753
▁caus	-11.8757
▁rojos	-11.876
▁Bar	-11.8773
▁Cor	-11.8778
▁despegar	-11.8782
▁Comprend	-11.8796
▁competent	-11.8797
▁piedras	-11.8813
▁limpias	-11.8816
▁consist	-11.8817
plica	-11.882
▁exact	-11.8821
ij	-11.8822
▁comb	-11.8826
▁trozos	-11.8829
▁suicida	-11.8833
tazo	-11.884
▁respeta	-11.8847
nyone	-11.8849
Sigue	-11.8853
Sabía	-11.8853
▁juegue	-11.8853
▁Korea	-11.8855
Vete	-11.8861
▁materia	-11.8861
▁astronaut	-11.8868
▁grano	-11.8872
▁bow	-11.8872
▁reunió	-11.8873
▁aspirin	-11.8875
tua	-11.8877
▁lobo	-11.8885
▁postpone	-11.8887
▁conduct	-11.8887
▁insist	-11.8889
▁develop	-11.889
ármelo	-11.889
▁afecta	-11.8895
▁fluent	-11.8898
▁descon	-11.89
mpecé	-11.8904
▁commit	-11.8904
▁orphan	-11.8904
▁solicit	-11.8904
▁arrow	-11.8904
▁candidato	-11.8904
▁coreano	-11.8904
▁cristiano	-11.8904
▁flecha	-11.8904
▁inesperado	-11.8904
▁inquieto	-11.8904
▁lavarropa	-11.8904
▁permaneci	-11.8904
▁árabe	-11.8904
Vienes	-11.8904
▁Earth	-11.8904
▁FBI	-11.8904
▁Food	-11.8904
▁Hilton	-11.8904
▁Hotel	-11.8904
▁July	-11.8904
▁Portugal	-11.8904
▁Roosevelt	-11.8904
▁Switzerland	-11.8904
▁Toyota	-11.8904
▁acento	-11.8904
▁acudir	-11.8904
▁alphabet	-11.8904
▁arrival	-11.8904
▁campaign	-11.8904
▁circle	-11.8904
▁convertido	-11.8904
▁cultiva	-11.8904
▁círculo	-11.8904
▁description	-11.8904
▁dizzy	-11.8904
▁environment	-11.8904
▁essential	-11.8904
▁forecast	-11.8904
▁garaje	-11.8904
▁honeymoon	-11.8904
▁increasing	-11.8904
▁inglesa	-11.8904
▁injusto	-11.8904
▁jabón	-11.8904
▁luxury	-11.8904
▁mundial	-11.8904
▁necklace	-11.8904
▁plain	-11.8904
▁pospone	-11.8904
▁predecir	-11.8904
▁pudieron	-11.8904
▁racket	-11.8904
▁struck	-11.8904
▁style	-11.8904
▁suicidio	-11.8904
▁surprising	-11.8904
▁telefónica	-11.8904
▁tímida	-11.8904
▁unconscious	-11.8904
▁unlucky	-11.8904
▁whisky	-11.8904
▁wolf	-11.8904
▁yourselves	-11.8904
▁Quíta	-11.8904
▁actúa	-11.8904
▁discount	-11.8904
▁llores	-11.8904
▁millionaire	-11.8904
▁silk	-11.8904
▁unlocked	-11.8904
▁consigue	-11.8904
▁guarantee	-11.8904
▁international	-11.8904
▁soborno	-11.8904
▁Suiza	-11.8904
▁briefcase	-11.8904
▁Cruz	-11.8904
▁composition	-11.8904
▁string	-11.8904
▁Hiroshima	-11.8904
▁conceal	-11.8904
▁Corea	-11.8904
▁physics	-11.8904
▁presencia	-11.8904
▁Cookie	-11.8904
▁campaña	-11.8904
▁spicy	-11.8904
▁nacimiento	-11.8904
▁optimistic	-11.8904
▁abrazar	-11.8904
▁escoba	-11.8904
▁Ambas	-11.8904
▁squeak	-11.8904
▁jury	-11.8904
▁gym	-11.8904
▁pusiera	-11.8904
▁enviado	-11.8904
▁figura	-11.8904
▁honey	-11.8904
▁recurrir	-11.8904
▁ésa	-11.8904
▁desagradable	-11.8904
▁Láv	-11.8905
▁continuación	-11.8905
▁amanecer	-11.8905
▁medal	-11.8905
▁susurr	-11.8905
▁distinto	-11.8905
rubbed	-11.8905
▁broom	-11.8905
▁mosca	-11.8905
▁Cinc	-11.8905
Oís	-11.8905
▁digging	-11.8905
▁permitió	-11.8905
▁cuero	-11.8905
▁shine	-11.8905
▁mojado	-11.8905
▁operación	-11.8905
▁pusiste	-11.8905
▁comieron	-11.8906
▁medalla	-11.8906
▁national	-11.8906
▁hatred	-11.8906
▁bomberos	-11.8906
▁grasa	-11.8906
▁empeorando	-11.8906
▁fuga	-11.8906
▁absolute	-11.8906
▁talentoso	-11.8907
▁rechazado	-11.8907
▁automovilístico	-11.8907
▁lemon	-11.8907
▁Though	-11.8907
▁interpreter	-11.8908
▁Fish	-11.8908
▁princess	-11.8909
▁cumplió	-11.8909
▁fake	-11.891
▁preocuparte	-11.891
▁empezaste	-11.891
▁condenado	-11.8911
▁cambiando	-11.8911
▁volviera	-11.8911
▁sake	-11.8912
▁recuperó	-11.8913
▁suelto	-11.8914
▁probarlo	-11.8914
▁acuest	-11.8914
▁pista	-11.8915
▁camping	-11.8916
▁practical	-11.8916
Cumpl	-11.8916
▁cheating	-11.8916
▁alquilar	-11.8917
▁contiene	-11.8917
▁convencerle	-11.8917
▁pron	-11.8917
▁logró	-11.8917
omúnmente	-11.8918
▁item	-11.8918
▁convencerlo	-11.8918
▁bebí	-11.8919
▁buscaba	-11.8919
▁elbow	-11.892
▁sentaron	-11.892
▁desayunado	-11.8921
pagué	-11.8922
▁arreglarlo	-11.8922
omas	-11.8922
▁disgusting	-11.8922
▁ensayo	-11.8923
▁Apaga	-11.8924
▁cancelar	-11.8925
▁bush	-11.8925
▁comedia	-11.8926
▁earned	-11.8926
▁warning	-11.8927
▁hilo	-11.8928
▁firmó	-11.8929
▁saludos	-11.8929
▁searching	-11.8929
▁oración	-11.893
▁Acepto	-11.8932
▁confident	-11.8933
▁docena	-11.8934
▁aspirina	-11.8934
▁online	-11.8934
gging	-11.8936
▁pure	-11.8939
▁entraron	-11.8941
▁enamorar	-11.8943
▁below	-11.8944
▁rubi	-11.8947
▁vueltas	-11.8947
▁caridad	-11.8949
▁cortado	-11.8949
pparently	-11.8951
▁frutas	-11.8951
▁tirar	-11.8954
▁Centr	-11.8958
▁recordó	-11.8959
▁fij	-11.8959
▁Qui	-11.8961
▁vacant	-11.8961
▁recomendar	-11.8961
▁aseguro	-11.8961
▁cambiará	-11.8962
▁deseos	-11.8962
▁decisiones	-11.8964
▁entering	-11.8964
▁clave	-11.8966
▁visitarme	-11.8967
lin	-11.8967
▁appreciated	-11.8969
▁Volvi	-11.897
ka	-11.8976
▁Salg	-11.8982
▁panda	-11.8985
▁populares	-11.8987
▁hermosas	-11.8989
▁existen	-11.8989
▁pasaron	-11.8991
▁encontrarlo	-11.8999
▁secretos	-11.8999
▁crops	-11.9004
▁operate	-11.9005
▁soltar	-11.901
▁esperamos	-11.9013
▁encontrarme	-11.9016
▁adivinar	-11.9022
▁cumple	-11.9025
▁dejarte	-11.9034
▁ingresos	-11.9035
▁pierdas	-11.9035
▁supplies	-11.9035
▁divorciar	-11.9035
▁Cut	-11.9036
itas	-11.904
▁Pagu	-11.9044
▁adolescentes	-11.9051
▁tigers	-11.9051
▁canilla	-11.9058
▁porqué	-11.906
selo	-11.9061
It	-11.907
▁streets	-11.9071
▁terminará	-11.9075
▁Hav	-11.9084
▁encontrarás	-11.9085
zing	-11.9086
▁seek	-11.9089
▁lead	-11.909
▁sucia	-11.9092
▁vais	-11.9093
ash	-11.9105
▁verdes	-11.9107
▁pides	-11.9113
▁mass	-11.9113
▁bone	-11.9116
H	-11.9124
▁Pero	-11.9133
▁ayudaré	-11.9151
tera	-11.9155
▁memorize	-11.9156
▁precioso	-11.9167
▁pares	-11.9177
▁casaron	-11.9178
▁kn	-11.9186
▁nación	-11.919
▁monos	-11.9197
▁falt	-11.9201
▁heridos	-11.9216
▁fina	-11.9222
▁jugará	-11.9225
▁prisoners	-11.9226
▁llegas	-11.9236
▁ciudadanos	-11.9255
▁digan	-11.9256
W	-11.926
▁vivos	-11.9271
▁consum	-11.9281
▁Confí	-11.9282
sumí	-11.9283
▁Van	-11.9283
▁pol	-11.929
▁daños	-11.9311
▁savings	-11.9318
▁averigua	-11.9334
▁metas	-11.9346
▁empa	-11.9349
▁consideran	-11.9349
▁entiendes	-11.935
▁interesantes	-11.9355
▁secrets	-11.9356
▁app	-11.9357
clined	-11.9362
▁ignor	-11.9371
▁memoriz	-11.9379
▁sorprender	-11.9385
▁cen	-11.9404
▁cocin	-11.9405
▁twist	-11.9409
wed	-11.9413
▁advis	-11.9426
▁But	-11.9434
▁Jugar	-11.9439
▁negros	-11.944
actuando	-11.945
minded	-11.9458
▁cambie	-11.9466
▁números	-11.9467
▁rueda	-11.9467
▁rayo	-11.9468
nybody	-11.9472
▁mas	-11.9482
▁odiar	-11.9486
▁falls	-11.949
▁flirt	-11.9494
ward	-11.9494
▁Bebe	-11.9498
▁vela	-11.95
▁chairs	-11.9521
▁Llamé	-11.9527
ham	-11.9538
▁Estuvi	-11.9556
▁constant	-11.9557
▁palm	-11.9566
vida	-11.957
▁equivoca	-11.9581
inter	-11.9587
▁sillas	-11.9589
▁rana	-11.96
▁bore	-11.9603
▁Dur	-11.9604
▁mislead	-11.9606
▁camp	-11.9609
▁recog	-11.9611
▁plancha	-11.9615
U	-11.9615
ction	-11.9615
house	-11.9622
sistió	-11.9625
▁marchar	-11.963
lick	-11.963
Tomás	-11.9634
▁entrega	-11.9636
▁felicit	-11.9639
raw	-11.964
▁Juga	-11.9643
▁mantuv	-11.9647
▁cheat	-11.9648
▁mol	-11.965
▁cloth	-11.9654
▁tax	-11.9655
▁settle	-11.9656
▁rescue	-11.9656
▁pianist	-11.9659
▁possibl	-11.9661
▁annoy	-11.9662
▁risks	-11.9662
▁graduate	-11.9662
▁stands	-11.9662
▁bake	-11.9665
▁dólar	-11.9666
▁triunf	-11.9671
▁fascina	-11.9671
▁Bur	-11.9671
housand	-11.9673
árselo	-11.9673
bviamente	-11.9673
▁acquaint	-11.9673
▁Egypt	-11.9673
▁Great	-11.9673
▁Wednesday	-11.9673
▁aguja	-11.9673
▁ajustar	-11.9673
▁alibi	-11.9673
▁announced	-11.9673
▁carbón	-11.9673
▁castigo	-11.9673
▁charity	-11.9673
▁charming	-11.9673
▁chimenea	-11.9673
▁combustible	-11.9673
▁conmovió	-11.9673
▁conseguiste	-11.9673
▁cuanta	-11.9673
▁divirtiendo	-11.9673
▁duermo	-11.9673
▁eager	-11.9673
▁económica	-11.9673
▁enemiga	-11.9673
▁engañe	-11.9673
▁estufa	-11.9673
▁excepción	-11.9673
▁faucet	-11.9673
▁generous	-11.9673
▁gimnasio	-11.9673
▁homicidio	-11.9673
▁huelga	-11.9673
▁internacional	-11.9673
▁julio	-11.9673
▁lyrics	-11.9673
▁lámpara	-11.9673
▁monument	-11.9673
▁motocicleta	-11.9673
▁movimiento	-11.9673
▁neumático	-11.9673
▁overslept	-11.9673
▁paisaje	-11.9673
▁pensamientos	-11.9673
▁portátil	-11.9673
▁puerto	-11.9673
▁reliable	-11.9673
▁romántico	-11.9673
▁security	-11.9673
▁semejante	-11.9673
▁semáforo	-11.9673
▁shining	-11.9673
▁stretch	-11.9673
▁surrounded	-11.9673
▁taburete	-11.9673
▁tecnología	-11.9673
▁terribly	-11.9673
▁traducción	-11.9673
▁unhealthy	-11.9673
▁valioso	-11.9673
▁veterinario	-11.9673
▁victim	-11.9673
▁videojuegos	-11.9673
▁asistente	-11.9673
▁banca	-11.9673
▁chocó	-11.9673
▁exigi	-11.9673
▁flame	-11.9673
▁hirviendo	-11.9673
▁hábil	-11.9673
▁justicia	-11.9673
▁Empiez	-11.9673
▁Pretend	-11.9673
▁confíe	-11.9673
▁nieva	-11.9673
▁relieved	-11.9673
▁scrap	-11.9673
▁empiece	-11.9673
▁region	-11.9673
▁Usual	-11.9673
▁explique	-11.9673
▁natal	-11.9673
▁nieto	-11.9673
▁delegados	-11.9673
▁esperanto	-11.9673
▁saque	-11.9673
▁militar	-11.9673
▁cellphone	-11.9673
▁levante	-11.9673
▁literatura	-11.9673
▁property	-11.9673
▁asombroso	-11.9673
▁competencia	-11.9673
▁slipped	-11.9673
▁temptation	-11.9673
▁freak	-11.9673
▁roommate	-11.9673
▁soleado	-11.9673
▁estuviese	-11.9674
▁inundación	-11.9674
▁modera	-11.9674
▁ignorancia	-11.9674
▁skinny	-11.9674
▁collection	-11.9674
▁sufrió	-11.9674
▁shallow	-11.9674
▁desorientado	-11.9674
▁breed	-11.9674
▁leather	-11.9674
▁producción	-11.9674
▁perdimos	-11.9674
▁bunch	-11.9674
▁fascinating	-11.9674
▁score	-11.9674
▁defectos	-11.9674
▁siguieron	-11.9674
▁muera	-11.9674
▁Abrí	-11.9674
▁entrenador	-11.9674
▁practicando	-11.9674
▁Decile	-11.9674
▁direct	-11.9674
▁rug	-11.9674
▁March	-11.9675
▁sunset	-11.9675
▁fascinante	-11.9675
▁ocasiones	-11.9675
▁amargo	-11.9675
▁chain	-11.9675
▁cubo	-11.9675
▁ahorrando	-11.9675
▁coach	-11.9675
▁tasa	-11.9675
▁explor	-11.9675
▁Llor	-11.9675
▁miserable	-11.9675
▁humanidad	-11.9675
▁nublado	-11.9676
▁embarrassing	-11.9676
▁maid	-11.9676
▁aumentando	-11.9676
▁jurado	-11.9676
▁Latin	-11.9676
▁tidy	-11.9676
▁mareado	-11.9676
▁persuadir	-11.9677
▁saldrá	-11.9678
▁charlando	-11.9678
▁invest	-11.9678
▁agradecerle	-11.9678
▁asustada	-11.9679
▁renunció	-11.9679
▁máximo	-11.9679
▁sharpen	-11.9679
▁approached	-11.9679
▁quejarte	-11.968
▁millonario	-11.968
▁pulga	-11.968
▁goose	-11.968
▁shape	-11.968
▁pasta	-11.968
▁spill	-11.968
▁molestando	-11.968
▁empujó	-11.9681
▁chores	-11.9681
▁apurado	-11.9681
▁votaron	-11.9681
▁Brus	-11.9681
▁scarf	-11.9682
▁hazlo	-11.9683
▁coal	-11.9683
▁rodeado	-11.9683
▁funcionará	-11.9683
berg	-11.9683
▁cerebro	-11.9683
▁presupuesto	-11.9683
▁vacil	-11.9683
▁recovered	-11.9683
▁ci	-11.9683
▁pública	-11.9684
▁traído	-11.9684
▁préstamo	-11.9684
▁tirado	-11.9685
▁rama	-11.9686
▁clothing	-11.9686
▁llovió	-11.9686
▁escuchaste	-11.9687
sistieron	-11.9687
▁pianista	-11.9687
▁dyed	-11.9688
▁descripción	-11.9689
▁reírme	-11.9689
▁sentarte	-11.9689
▁perderás	-11.9689
▁llegando	-11.9691
▁postponed	-11.9692
▁anytime	-11.9693
▁Much	-11.9694
▁crió	-11.9695
▁Hiciste	-11.9697
▁enterrado	-11.9698
▁fume	-11.9698
▁unfortunate	-11.9699
▁drawing	-11.97
▁gastar	-11.97
▁pala	-11.97
▁enseñarte	-11.9701
▁mataron	-11.9701
▁memorizar	-11.9704
▁helpful	-11.9706
▁mentioned	-11.9707
▁mentí	-11.9708
▁mezcla	-11.9708
▁packed	-11.971
▁adaptar	-11.971
▁stare	-11.9711
▁stain	-11.9712
▁contarle	-11.9712
▁crown	-11.9713
ki	-11.9713
▁pela	-11.9715
▁diseño	-11.9715
rk	-11.9717
▁absurdo	-11.9718
▁pinch	-11.9718
▁longest	-11.9718
defini	-11.972
▁enfermedades	-11.972
▁Admit	-11.972
▁entenderlo	-11.9722
▁tasted	-11.9723
▁oírlo	-11.9725
▁fooled	-11.9727
▁normally	-11.9728
▁welcomed	-11.973
▁accent	-11.9733
▁autumn	-11.9733
▁breathing	-11.9735
▁durará	-11.9736
▁opiniones	-11.9738
▁tocaba	-11.9738
vertirse	-11.9753
▁trampas	-11.976
▁data	-11.9761
▁slapp	-11.9761
▁gustará	-11.9763
▁Mirá	-11.9764
▁dividi	-11.977
▁decisions	-11.9771
▁durar	-11.9771
nna	-11.9775
▁mejorando	-11.9787
▁escuchaba	-11.9787
▁calcula	-11.9787
▁mix	-11.9791
▁pagará	-11.9794
▁entendería	-11.9794
▁escuches	-11.9798
▁despe	-11.9802
▁alza	-11.9809
▁laughs	-11.9813
▁tools	-11.9815
▁sobras	-11.9815
▁escuchas	-11.9833
▁llevado	-11.9833
▁alerta	-11.9836
▁empeorar	-11.9838
▁Permíta	-11.984
▁Iremos	-11.9843
▁viejas	-11.9844
▁madur	-11.9848
▁molestes	-11.9849
▁tigres	-11.9849
▁ocurren	-11.9855
▁eighty	-11.9863
▁manda	-11.9867
▁transfer	-11.9868
▁cumpl	-11.9869
▁cultural	-11.9873
▁abus	-11.9883
▁honesty	-11.9889
▁Segur	-11.9897
▁labor	-11.9899
▁candles	-11.99
bró	-11.9902
▁Estudia	-11.9903
▁cuantos	-11.9904
▁torn	-11.9909
sistencia	-11.991
▁sorprendidos	-11.9912
▁encuentres	-11.9917
▁politicians	-11.9917
▁prisioneros	-11.9917
▁Vari	-11.9918
▁regresa	-11.993
▁Pri	-11.9947
▁Stat	-11.9956
cking	-11.9957
▁rodillas	-11.9968
▁entienden	-11.999
▁tomas	-11.9995
▁citizens	-11.9998
Fue	-12.0003
▁burns	-12.0003
▁bonitas	-12.0014
▁answering	-12.0028
▁juntas	-12.0031
aza	-12.0032
▁enero	-12.0042
▁mide	-12.0045
▁Pagar	-12.0057
cción	-12.0058
▁famosos	-12.0066
▁aliment	-12.0078
▁hambrientos	-12.0088
tara	-12.0099
uch	-12.01
▁orgullosos	-12.0118
▁negoci	-12.0126
▁logr	-12.0126
▁extendi	-12.0127
dded	-12.013
ntentó	-12.0131
▁arrojar	-12.0139
▁Hacer	-12.016
▁Corre	-12.0166
▁Ayuda	-12.0168
▁rompe	-12.0172
▁Pass	-12.0177
▁pequeñas	-12.0181
jó	-12.0187
▁qui	-12.0188
▁vinieras	-12.0193
▁fing	-12.0199
▁atrev	-12.02
▁barri	-12.0206
▁Anda	-12.0213
▁toys	-12.0237
▁esperes	-12.0263
▁interroga	-12.0282
▁provoc	-12.0289
▁araña	-12.03
▁trick	-12.03
▁banana	-12.0303
▁cow	-12.0303
▁gemelo	-12.0304
▁observar	-12.0306
▁alumno	-12.0306
▁aumenta	-12.0306
▁sheet	-12.0311
▁relative	-12.0319
gle	-12.0326
▁junta	-12.0328
▁sew	-12.0334
▁presion	-12.0346
▁conditions	-12.0352
venge	-12.0353
▁alimento	-12.0355
▁Confi	-12.0355
▁gotea	-12.036
shed	-12.0361
ssed	-12.0371
▁lamenta	-12.0374
▁recuerdos	-12.0382
▁comprara	-12.0386
▁official	-12.0397
▁llamara	-12.0404
vá	-12.0405
▁supieras	-12.0405
recí	-12.0409
▁oscur	-12.0412
▁desat	-12.0414
biera	-12.0428
▁ahorr	-12.0429
itting	-12.043
rale	-12.0433
▁wan	-12.0437
▁crí	-12.0443
▁absurd	-12.0444
▁registr	-12.045
▁blam	-12.045
employed	-12.0452
▁organ	-12.0452
Sobre	-12.0453
▁podr	-12.0454
Will	-12.0456
▁period	-12.0457
▁image	-12.0458
▁montó	-12.0459
made	-12.0465
▁litera	-12.0468
▁ranch	-12.0471
▁creci	-12.0473
aga	-12.0477
▁pistol	-12.048
▁decepciona	-12.0481
▁pusi	-12.0484
▁bark	-12.0485
Compra	-12.0485
▁celebrar	-12.0491
▁elect	-12.0492
▁accomplish	-12.0492
▁novelist	-12.0493
▁defeat	-12.0493
▁incredibl	-12.0494
▁cuán	-12.0494
▁pronuncia	-12.0495
▁cuadra	-12.0497
▁happie	-12.0498
▁aquél	-12.0498
▁Levant	-12.0499
▁potato	-12.0499
▁apura	-12.0499
ético	-12.0502
▁caí	-12.0502
▁estupenda	-12.0503
sentimiento	-12.0505
wimming	-12.0506
▁declara	-12.0506
▁comfort	-12.0506
▁exhibi	-12.0506
▁Disneyland	-12.0506
▁depart	-12.0506
▁Encuentr	-12.0507
▁Segui	-12.0507
▁indulge	-12.0507
▁recomiend	-12.0507
▁Dormí	-12.0507
▁Egipto	-12.0507
▁February	-12.0507
▁Gobierno	-12.0507
▁Serbia	-12.0507
▁Smith	-12.0507
▁Twitter	-12.0507
▁anuncio	-12.0507
▁aprecio	-12.0507
▁apropiado	-12.0507
▁apuñaló	-12.0507
▁arrancar	-12.0507
▁arrodill	-12.0507
▁atmosphere	-12.0507
▁atmósfera	-12.0507
▁aventura	-12.0507
▁awesome	-12.0507
▁bastón	-12.0507
▁blonde	-12.0507
▁cadena	-12.0507
▁candidate	-12.0507
▁cebolla	-12.0507
▁cheerful	-12.0507
▁chemistry	-12.0507
▁coartada	-12.0507
▁colección	-12.0507
▁colleague	-12.0507
▁comenzando	-12.0507
▁compulsiv	-12.0507
▁conciencia	-12.0507
▁construction	-12.0507
▁continúa	-12.0507
▁cueva	-12.0507
▁delegate	-12.0507
▁embassy	-12.0507
▁engañado	-12.0507
▁estornud	-12.0507
▁expenses	-12.0507
▁febrero	-12.0507
▁fifth	-12.0507
▁graciosa	-12.0507
▁helmet	-12.0507
▁indispensable	-12.0507
▁ingredient	-12.0507
▁invisible	-12.0507
▁jersey	-12.0507
▁kidnapped	-12.0507
▁maletero	-12.0507
▁olvidadizo	-12.0507
▁perfume	-12.0507
▁pollera	-12.0507
▁previsto	-12.0507
▁pésima	-12.0507
▁reconocí	-12.0507
▁región	-12.0507
▁resemblance	-12.0507
▁sacerdote	-12.0507
▁scheme	-12.0507
▁soñado	-12.0507
▁steak	-12.0507
▁stiff	-12.0507
▁suspicion	-12.0507
▁textbook	-12.0507
▁típico	-12.0507
▁uncomfortable	-12.0507
▁victoria	-12.0507
▁vodka	-12.0507
▁voleibol	-12.0507
▁órgano	-12.0507
▁Apple	-12.0507
▁Charle	-12.0507
▁branch	-12.0507
▁inusual	-12.0507
▁miércoles	-12.0507
▁modest	-12.0507
▁pledge	-12.0507
▁remote	-12.0507
▁saqué	-12.0507
▁solving	-12.0507
▁statue	-12.0507
▁además	-12.0507
▁juramento	-12.0507
▁outdoors	-12.0507
▁raqueta	-12.0507
Empecemos	-12.0507
▁Traduc	-12.0507
▁dawn	-12.0507
▁prohíb	-12.0507
▁hurried	-12.0507
▁presum	-12.0507
▁risa	-12.0507
▁tolerate	-12.0507
▁voto	-12.0507
▁viniendo	-12.0507
▁mientas	-12.0507
▁pride	-12.0507
▁siglo	-12.0507
▁assistance	-12.0507
▁flea	-12.0507
▁registradora	-12.0507
▁oath	-12.0507
▁recién	-12.0507
▁despegó	-12.0507
▁secretaria	-12.0507
▁forzado	-12.0507
▁pudiste	-12.0507
▁concentrarme	-12.0507
▁creciendo	-12.0507
▁petición	-12.0507
▁enojó	-12.0507
▁avance	-12.0507
▁presentimiento	-12.0507
▁lung	-12.0507
▁Teresa	-12.0507
▁corona	-12.0507
▁detallada	-12.0507
▁ignorance	-12.0507
▁pague	-12.0507
▁compro	-12.0507
▁exige	-12.0507
▁perdida	-12.0507
▁aggressive	-12.0507
▁condujera	-12.0507
▁postura	-12.0507
▁essay	-12.0507
▁perdiste	-12.0507
▁queráis	-12.0507
▁modales	-12.0508
▁downtown	-12.0508
▁tries	-12.0508
▁production	-12.0508
▁Kong	-12.0508
▁empecé	-12.0508
▁fumo	-12.0508
▁sucediendo	-12.0508
▁ninety	-12.0508
omic	-12.0508
▁circula	-12.0508
▁jarra	-12.0509
▁latín	-12.0509
▁scarce	-12.0509
▁pobreza	-12.0509
▁relate	-12.0509
▁contrató	-12.0509
▁severo	-12.0509
▁effective	-12.051
▁ceremonia	-12.051
▁hola	-12.051
▁hunter	-12.051
▁talkative	-12.051
▁frontera	-12.051
▁sana	-12.0511
▁Saca	-12.0511
▁agradecerte	-12.0511
▁element	-12.0511
Hablas	-12.0511
▁guide	-12.0511
▁reality	-12.0512
▁comprendo	-12.0512
▁castigado	-12.0512
▁intenté	-12.0512
▁quint	-12.0513
▁Cay	-12.0513
▁parties	-12.0513
▁pace	-12.0515
▁liberado	-12.0515
▁wink	-12.0515
▁dict	-12.0515
▁solid	-12.0516
▁Ch	-12.0516
▁perform	-12.0516
▁sword	-12.0516
▁estatua	-12.0516
Donald	-12.0517
▁plead	-12.0517
▁ronca	-12.0517
▁retrasado	-12.0517
▁yelling	-12.0518
▁relajado	-12.0518
▁harp	-12.0519
▁arruinado	-12.0519
▁incredible	-12.052
▁besando	-12.052
▁lastimado	-12.052
yeron	-12.052
▁defeated	-12.052
▁retiró	-12.0521
▁congratulated	-12.0521
▁chef	-12.0521
▁careless	-12.0522
▁función	-12.0522
▁jar	-12.0523
▁americana	-12.0523
▁alas	-12.0523
▁sándwiches	-12.0523
▁dudo	-12.0523
▁apuntes	-12.0524
▁correctamente	-12.0525
vío	-12.0526
▁walls	-12.0526
▁hunger	-12.0526
▁collected	-12.0527
▁robot	-12.0528
▁servirá	-12.0528
▁evidente	-12.0528
▁levantarte	-12.0529
▁respira	-12.053
▁clavo	-12.053
▁sobrevivió	-12.053
▁especialmente	-12.053
▁shooting	-12.053
▁frozen	-12.0531
▁resigned	-12.0531
▁prayed	-12.0531
▁interrupted	-12.0535
socia	-12.0536
▁repairing	-12.0536
▁chew	-12.0537
▁Sírva	-12.0538
▁abro	-12.0539
▁install	-12.0539
▁pido	-12.0541
▁dial	-12.0541
▁huérfano	-12.0542
▁nave	-12.0543
▁advanced	-12.0543
▁rumores	-12.0545
▁contenta	-12.0546
▁horno	-12.0546
▁Move	-12.0549
▁importaba	-12.0549
ire	-12.055
▁cazador	-12.055
▁knocking	-12.0551
▁matarme	-12.0552
▁aprovechar	-12.0553
▁sufre	-12.0554
▁llamaron	-12.0557
▁retirar	-12.0558
▁rancho	-12.0558
ative	-12.0559
meter	-12.0559
▁landed	-12.0561
▁Huele	-12.0561
▁empezamos	-12.0563
▁Aprende	-12.0565
▁pensarlo	-12.0565
▁ayudaros	-12.0566
▁practicar	-12.0568
▁entendió	-12.0569
▁estaciones	-12.0569
▁vendedor	-12.057
▁hamburguesas	-12.057
▁aposta	-12.0572
▁terrorista	-12.0573
▁planeado	-12.0573
▁Lava	-12.0578
▁rescat	-12.0579
▁state	-12.0583
▁rollo	-12.0586
▁Llen	-12.0587
▁wave	-12.0589
▁compraría	-12.0589
▁elevado	-12.059
▁sung	-12.0593
bré	-12.0593
▁Pasó	-12.0596
▁counting	-12.0598
ain	-12.0599
▁dresses	-12.06
liza	-12.0602
▁funcione	-12.0603
▁comunicar	-12.0604
▁Yes	-12.0609
▁consiste	-12.0614
▁theft	-12.0616
▁recuperar	-12.0618
▁compraron	-12.0624
▁estampillas	-12.0625
▁británicos	-12.0625
▁alike	-12.0628
▁fatal	-12.0628
▁boxes	-12.0628
▁hablara	-12.0631
▁armed	-12.0634
▁probó	-12.0638
▁windy	-12.0641
▁absorb	-12.0646
▁camel	-12.0647
▁impos	-12.0648
▁Estaría	-12.0657
▁temas	-12.066
▁plátanos	-12.0661
▁customers	-12.0662
▁operar	-12.067
▁acto	-12.0672
ige	-12.0673
▁ballenas	-12.068
▁cure	-12.068
▁sorprendente	-12.0682
▁reparti	-12.0685
▁monta	-12.0699
▁skills	-12.0699
▁rested	-12.0701
▁aboard	-12.0703
▁separar	-12.0704
▁decora	-12.0706
▁preguntado	-12.0708
▁estaremos	-12.0708
▁mow	-12.0717
▁forgiven	-12.0722
▁idiotas	-12.0725
Desea	-12.0726
▁ruedas	-12.0735
▁mental	-12.0736
eth	-12.0748
▁comments	-12.0754
▁elefantes	-12.0754
▁siguen	-12.0754
▁crecer	-12.0755
▁Aquello	-12.0758
▁pedazos	-12.0772
▁previo	-12.0772
▁copi	-12.0777
▁fra	-12.0787
arios	-12.0789
▁cheques	-12.0791
▁basta	-12.08
▁pare	-12.0804
▁cambios	-12.0807
▁quejar	-12.0807
▁exc	-12.0819
▁Gu	-12.0826
▁sucios	-12.0828
▁curtains	-12.0828
iéramos	-12.083
rime	-12.0836
Han	-12.0839
nged	-12.0865
▁bomber	-12.0872
▁exams	-12.0882
fundió	-12.0891
▁andaba	-12.0893
▁Viví	-12.0895
▁phoned	-12.0905
▁antiguas	-12.0922
Esperaba	-12.0927
▁ju	-12.0931
▁Busca	-12.0938
▁reí	-12.0952
▁acord	-12.0952
▁celebr	-12.0965
uego	-12.0967
▁enfrentar	-12.0967
▁reporter	-12.0969
▁produc	-12.0978
▁Mc	-12.0986
▁antiguos	-12.0998
▁heridas	-12.0998
▁investiga	-12.1
lip	-12.1001
▁sincere	-12.1016
▁wasted	-12.1024
▁tocado	-12.1025
▁miré	-12.1031
▁pele	-12.1033
▁Llam	-12.1042
▁Piensa	-12.1049
0,000	-12.1068
▁compensa	-12.1083
▁informar	-12.1084
istic	-12.1084
▁emocion	-12.1091
▁riesgos	-12.1094
ué	-12.1094
▁Arm	-12.1107
▁Hu	-12.111
▁needle	-12.1142
board	-12.1151
iré	-12.1154
▁honesta	-12.1159
▁pills	-12.1162
vil	-12.1164
▁estudios	-12.1171
lia	-12.1177
▁north	-12.1179
▁telefone	-12.1181
▁incorrect	-12.1187
▁retir	-12.119
▁atrapados	-12.1191
▁lid	-12.1191
▁adopta	-12.1193
▁representa	-12.12
▁mudar	-12.1201
ísima	-12.1207
▁granjero	-12.1207
▁truco	-12.1208
▁moleste	-12.1211
▁tigre	-12.1211
▁turista	-12.1213
▁Edi	-12.1223
▁Echa	-12.1229
▁skill	-12.123
atch	-12.1234
▁handy	-12.1243
▁stones	-12.1249
▁separa	-12.1254
▁grado	-12.1256
▁cer	-12.1259
▁seguí	-12.1259
chu	-12.127
▁leía	-12.1279
▁vota	-12.1284
▁vencer	-12.1294
cula	-12.1299
ltimamente	-12.1311
▁baj	-12.1322
▁Vuestr	-12.1331
J	-12.134
▁bonitos	-12.1347
▁agradec	-12.1348
▁encontrará	-12.1357
Toca	-12.1362
Recibi	-12.1362
Mañana	-12.1365
down	-12.1365
Mira	-12.1367
Vos	-12.1368
Queda	-12.1368
▁cro	-12.1368
▁explica	-12.1369
▁Leer	-12.137
▁eleva	-12.1376
▁pagan	-12.1376
uela	-12.1379
corr	-12.1382
▁Pónga	-12.1383
▁ancho	-12.1385
▁llovi	-12.1395
▁yell	-12.1396
ngeles	-12.1397
▁gal	-12.1399
▁punish	-12.1402
▁destroy	-12.1402
cientists	-12.1403
▁involucra	-12.1406
▁condena	-12.1409
▁describir	-12.1409
▁recent	-12.1409
▁inmediata	-12.1413
▁reciente	-12.1413
▁aparenta	-12.1413
▁engaño	-12.1414
▁orgullo	-12.1414
▁prohib	-12.1414
tudents	-12.1415
▁ubica	-12.1415
lif	-12.1415
▁asombr	-12.1415
▁accu	-12.1415
▁refugi	-12.1415
▁satisf	-12.1416
▁almuerza	-12.1416
▁chalk	-12.1416
▁pendiente	-12.1416
▁stink	-12.1416
▁tattoo	-12.1416
Entendiste	-12.1416
Escribí	-12.1416
caño	-12.1416
▁Admir	-12.1416
▁Arabic	-12.1416
▁Berlin	-12.1416
▁Black	-12.1416
▁Columbus	-12.1416
▁Colón	-12.1416
▁Conseguí	-12.1416
▁Desayun	-12.1416
▁Finally	-12.1416
▁Grecia	-12.1416
▁Greece	-12.1416
▁Imagin	-12.1416
▁Nevó	-12.1416
▁Ocean	-12.1416
▁Scotland	-12.1416
▁Terminé	-12.1416
▁acknowledge	-12.1416
▁aclarar	-12.1416
▁adecuada	-12.1416
▁aliviado	-12.1416
▁appropriate	-12.1416
▁awoke	-12.1416
▁bathtub	-12.1416
▁battery	-12.1416
▁beneficio	-12.1416
▁blouse	-12.1416
▁blusa	-12.1416
▁bufanda	-12.1416
▁consequences	-12.1416
▁cordones	-12.1416
▁creature	-12.1416
▁cucaracha	-12.1416
▁curiosity	-12.1416
▁descuento	-12.1416
▁diablo	-12.1416
▁dieciséis	-12.1416
▁dirige	-12.1416
▁divertimos	-12.1416
▁encontraba	-12.1416
▁esclavo	-12.1416
▁esperábamos	-12.1416
▁estricta	-12.1416
▁estricto	-12.1416
▁estropeado	-12.1416
▁estupidez	-12.1416
▁financiera	-12.1416
▁fluidamente	-12.1416
▁fluidez	-12.1416
▁graduó	-12.1416
▁housework	-12.1416
▁impresionante	-12.1416
▁imágenes	-12.1416
▁inclina	-12.1416
▁inferior	-12.1416
▁insecure	-12.1416
▁jerk	-12.1416
▁kitten	-12.1416
▁lío	-12.1416
▁lógica	-12.1416
▁maravilla	-12.1416
▁marrón	-12.1416
▁maíz	-12.1416
▁minifalda	-12.1416
▁movió	-12.1416
▁pantalla	-12.1416
▁pausa	-12.1416
▁perezoso	-12.1416
▁positive	-12.1416
▁ritmo	-12.1416
▁récord	-12.1416
▁sanguíneo	-12.1416
▁shoelaces	-12.1416
▁skating	-12.1416
▁smooth	-12.1416
▁soñar	-12.1416
▁spaghetti	-12.1416
▁starving	-12.1416
▁sueltes	-12.1416
▁telefónico	-12.1416
▁terminé	-12.1416
▁traitor	-12.1416
▁trousers	-12.1416
▁tunnel	-12.1416
▁término	-12.1416
▁undressing	-12.1416
▁unpleasant	-12.1416
▁victory	-12.1416
▁vidrio	-12.1416
▁whispered	-12.1416
▁wolves	-12.1416
▁ópera	-12.1416
▁Claro	-12.1416
▁Escocia	-12.1416
▁Finish	-12.1416
▁Texas	-12.1416
▁Valentin	-12.1416
▁Vietnam	-12.1416
▁boast	-12.1416
▁deportivo	-12.1416
▁intenciones	-12.1416
▁madruga	-12.1416
▁nowadays	-12.1416
▁oigo	-12.1416
▁surgery	-12.1416
▁worries	-12.1416
exican	-12.1416
▁Doctor	-12.1416
▁Podía	-12.1416
▁duerma	-12.1416
▁link	-12.1416
▁locura	-12.1416
▁process	-12.1416
▁Cross	-12.1416
▁noventa	-12.1416
▁apague	-12.1416
▁backyard	-12.1416
▁fellow	-12.1416
▁Break	-12.1416
▁stirr	-12.1416
▁supiste	-12.1416
▁Buy	-12.1416
▁propiedad	-12.1416
▁temple	-12.1416
▁Empezar	-12.1416
▁manzano	-12.1416
▁multa	-12.1416
▁atractivo	-12.1416
▁technology	-12.1416
▁traidor	-12.1416
▁performance	-12.1416
▁shampoo	-12.1416
▁fritas	-12.1416
▁aplaudió	-12.1416
stiny	-12.1416
▁bañera	-12.1416
▁Oig	-12.1416
▁sorprendida	-12.1416
▁expresión	-12.1416
▁apuesta	-12.1416
▁Year	-12.1416
▁investment	-12.1416
▁relajarme	-12.1416
▁túnel	-12.1416
▁cocinera	-12.1416
▁freedom	-12.1416
▁palacio	-12.1416
▁cabaña	-12.1416
▁expire	-12.1416
▁generation	-12.1416
▁script	-12.1416
▁swimmer	-12.1416
▁pecho	-12.1416
yendo	-12.1416
▁comiera	-12.1416
▁capítulo	-12.1416
▁canasta	-12.1416
▁inherit	-12.1417
▁declaración	-12.1417
▁investigating	-12.1417
▁cavando	-12.1417
▁atajo	-12.1417
▁dining	-12.1417
▁Comencemos	-12.1417
▁fluido	-12.1417
▁freezing	-12.1417
▁Manténga	-12.1417
▁repentinamente	-12.1417
▁suministros	-12.1417
▁pigeon	-12.1417
▁agenda	-12.1417
▁complicada	-12.1417
▁respiración	-12.1417
▁confiaba	-12.1417
▁florero	-12.1417
▁acabe	-12.1418
▁drum	-12.1418
▁genuine	-12.1418
▁nacier	-12.1418
▁fried	-12.1418
▁Hagámoslo	-12.1418
▁soltó	-12.1418
▁exploded	-12.1418
▁Anota	-12.1418
▁aviso	-12.1418
▁tardará	-12.1418
▁ratas	-12.1419
▁baking	-12.1419
▁rebel	-12.1419
▁confiado	-12.1419
▁divirtió	-12.1419
▁sentarnos	-12.1419
▁ladrando	-12.1419
▁marzo	-12.1419
▁atropellado	-12.1419
▁vegetarianos	-12.142
▁joyas	-12.142
▁arranged	-12.142
▁proposed	-12.142
▁despidieron	-12.142
▁disculparme	-12.142
▁salimos	-12.142
▁ligera	-12.142
▁Quéde	-12.142
▁lloraba	-12.142
▁cube	-12.1421
▁aceptable	-12.1421
▁defender	-12.1421
ándole	-12.1422
▁salgo	-12.1422
▁parezca	-12.1422
▁Music	-12.1422
▁1,000	-12.1423
▁severe	-12.1423
▁Aparentemente	-12.1423
▁ruinas	-12.1423
▁arriesgado	-12.1423
▁pura	-12.1423
▁transmit	-12.1423
▁directly	-12.1424
▁oíste	-12.1424
▁fumando	-12.1424
▁praised	-12.1425
▁Entré	-12.1425
▁Luce	-12.1425
▁panic	-12.1425
▁conditioner	-12.1426
▁pronunciar	-12.1426
▁acostarme	-12.1426
▁Gira	-12.1426
▁Levanta	-12.1427
▁chased	-12.1427
▁gradua	-12.1427
▁cancelado	-12.1428
▁folded	-12.1428
▁dejando	-12.1429
ién	-12.143
▁European	-12.143
▁regularly	-12.143
▁doscient	-12.1431
▁personaje	-12.1432
▁colon	-12.1433
▁novelista	-12.1433
▁trash	-12.1434
▁White	-12.1434
▁contenido	-12.1435
▁settled	-12.1437
▁distracted	-12.1437
▁chaval	-12.1437
▁boiled	-12.1438
▁coughing	-12.1438
▁Pint	-12.1438
▁yelled	-12.1438
▁tomaste	-12.1438
▁entrado	-12.1438
▁recuperará	-12.1439
▁volunteered	-12.1439
▁waved	-12.1442
▁matches	-12.1442
▁jumping	-12.1444
▁Fall	-12.1444
▁sinking	-12.1446
▁circunstancias	-12.1446
▁jewels	-12.1446
▁kilograms	-12.1446
▁zanahorias	-12.1446
▁nativos	-12.1446
▁lavarse	-12.1452
▁nado	-12.1454
Entiende	-12.1455
▁King	-12.1456
▁gum	-12.1459
▁section	-12.146
tled	-12.146
cendió	-12.1461
▁salía	-12.1462
▁pounds	-12.1466
▁apresurar	-12.1467
▁besara	-12.1469
▁audi	-12.1469
▁mango	-12.1471
▁resfriar	-12.1474
▁matarte	-12.1477
▁Vení	-12.1477
▁escucharlo	-12.1478
▁entendía	-12.1482
▁identif	-12.1483
▁planeaba	-12.1484
jamos	-12.1485
▁leftovers	-12.1486
▁ponerlo	-12.1489
▁juegas	-12.1491
▁safely	-12.1492
▁waiter	-12.1493
▁ruidosa	-12.1494
▁cuidará	-12.1496
▁aparecer	-12.15
▁suits	-12.1503
▁verás	-12.1505
▁pastillas	-12.1506
▁responde	-12.1512
▁estante	-12.1514
▁lleguemos	-12.1516
▁include	-12.1517
▁cantaba	-12.1521
ómete	-12.1524
▁finales	-12.1525
▁wire	-12.1525
▁lightly	-12.1526
▁shortly	-12.1529
▁chinos	-12.153
▁Rein	-12.1535
▁Old	-12.1537
▁falló	-12.1542
viv	-12.1544
▁brakes	-12.1546
▁llevarlo	-12.155
▁pluck	-12.1552
▁constante	-12.1556
▁Presta	-12.1557
▁Corta	-12.158
▁camin	-12.158
▁dejase	-12.1584
▁espaldas	-12.1587
▁nota	-12.1587
▁cabin	-12.1594
▁Fre	-12.1616
▁decorate	-12.1619
▁sudor	-12.1621
ísimas	-12.1627
▁Coc	-12.1631
▁pila	-12.1632
▁logra	-12.1645
▁cows	-12.1647
▁tricks	-12.1647
▁buscas	-12.1648
▁asco	-12.1662
▁Disfruta	-12.1667
▁oscurecie	-12.1675
▁pin	-12.1676
▁leads	-12.1678
▁bitte	-12.1696
▁arañas	-12.1699
▁Red	-12.17
▁desarroll	-12.1708
▁conozcas	-12.1708
▁secreta	-12.1713
▁relacion	-12.1713
▁canal	-12.1713
▁quedarás	-12.1715
▁arregla	-12.1719
▁cepillar	-12.1737
▁cops	-12.1747
▁east	-12.1751
▁preocupar	-12.1754
▁volvía	-12.1755
▁arruinar	-12.1772
▁postal	-12.1777
▁Lu	-12.1777
▁doctores	-12.1781
▁gr	-12.1805
▁sufr	-12.1812
▁invento	-12.1817
Esa	-12.1829
▁lessons	-12.1832
▁Acepta	-12.1844
▁interfere	-12.186
▁funcionan	-12.1867
ulsa	-12.1871
▁Recibi	-12.1874
▁abras	-12.189
▁Times	-12.1895
▁enfada	-12.1899
▁Regresa	-12.1904
▁dejará	-12.1927
term	-12.1934
▁interfer	-12.1946
▁hábitos	-12.1957
▁sabíamos	-12.1961
▁indicar	-12.1968
gir	-12.1992
▁Cuida	-12.1993
▁causar	-12.2
▁fracasar	-12.2005
▁clo	-12.2007
nzaron	-12.201
Quier	-12.2016
▁Super	-12.2016
▁Descubr	-12.2025
afi	-12.2047
▁protesta	-12.2049
▁eche	-12.2053
▁hombros	-12.2063
▁Ah	-12.2064
▁hablarte	-12.2082
room	-12.2104
cimiento	-12.2121
▁lograr	-12.2156
imp	-12.2162
▁terremotos	-12.217
▁emborrach	-12.2171
▁Prepar	-12.2172
▁wrap	-12.2178
▁ascenso	-12.2188
▁urge	-12.2188
▁complains	-12.2194
▁vitamin	-12.2199
▁quita	-12.2202
▁surg	-12.2207
▁spider	-12.2207
▁beginner	-12.2208
▁antique	-12.2209
▁ballena	-12.221
▁adolescente	-12.2211
▁tiger	-12.2211
▁ladrar	-12.2211
▁alert	-12.2215
▁separado	-12.2219
▁vitamina	-12.2221
read	-12.2233
▁Entr	-12.2242
ndá	-12.2253
▁zapato	-12.2261
ablemente	-12.2275
▁produ	-12.2281
uri	-12.2289
▁diseñ	-12.2293
▁congela	-12.2295
sant	-12.2301
▁industria	-12.2302
▁Nadar	-12.2315
▁burlar	-12.2321
Encontra	-12.2326
▁terrorist	-12.2337
▁horn	-12.2355
cómo	-12.2359
▁aprovech	-12.236
print	-12.2362
Llama	-12.2362
Querría	-12.2363
K	-12.2364
Gracias	-12.2365
tenga	-12.2365
Ayer	-12.2365
cerró	-12.2365
Oh	-12.2366
Aquí	-12.2367
You	-12.2369
ko	-12.237
▁discover	-12.2371
▁jugado	-12.2379
dney	-12.2384
▁superfici	-12.2386
▁Count	-12.239
▁entendi	-12.2392
▁apunta	-12.2392
▁client	-12.2395
▁shave	-12.2398
▁congratulate	-12.2398
▁reserve	-12.2401
▁dye	-12.2401
▁reveal	-12.2402
▁prime	-12.2405
▁fold	-12.2405
ich	-12.2407
▁pico	-12.2407
▁Compara	-12.2407
▁assemble	-12.2408
egí	-12.241
▁compose	-12.241
wer	-12.2412
▁bloque	-12.2413
▁Detén	-12.2414
▁measure	-12.2415
▁occur	-12.2415
nstead	-12.2416
▁Disney	-12.2416
ustria	-12.2416
▁diploma	-12.2416
▁Georg	-12.2416
▁acumul	-12.2416
dmission	-12.2416
▁Actualmente	-12.2416
▁Adonde	-12.2416
▁Argentina	-12.2416
▁August	-12.2416
▁Business	-12.2416
▁Catholic	-12.2416
▁Chopin	-12.2416
▁Darwin	-12.2416
▁Dáselo	-12.2416
▁Flash	-12.2416
▁Monroe	-12.2416
▁November	-12.2416
▁Okinawa	-12.2416
▁Olympic	-12.2416
▁Pacific	-12.2416
▁Pacífico	-12.2416
▁Sapporo	-12.2416
▁Sentémonos	-12.2416
▁Shinjuku	-12.2416
▁Termine	-12.2416
▁Translat	-12.2416
▁Turquía	-12.2416
▁Verdaderamente	-12.2416
▁Volvamos	-12.2416
▁adquir	-12.2416
▁aficionado	-12.2416
▁agresivo	-12.2416
▁alivio	-12.2416
▁almacén	-12.2416
▁alternative	-12.2416
▁apropiada	-12.2416
▁architect	-12.2416
▁arquitecto	-12.2416
▁asqueroso	-12.2416
▁asustó	-12.2416
▁attorney	-12.2416
▁barefoot	-12.2416
▁bloom	-12.2416
▁buzón	-12.2416
▁castaño	-12.2416
▁century	-12.2416
▁ceremony	-12.2416
▁champion	-12.2416
▁chemical	-12.2416
▁cicatriz	-12.2416
▁claridad	-12.2416
▁commercial	-12.2416
▁conocida	-12.2416
▁contagious	-12.2416
▁declared	-12.2416
▁desafortunado	-12.2416
▁desafío	-12.2416
▁dismissed	-12.2416
▁engagement	-12.2416
▁estacionamiento	-12.2416
▁etiqueta	-12.2416
▁extrovert	-12.2416
▁filosofía	-12.2416
▁fotógrafo	-12.2416
▁generoso	-12.2416
▁globo	-12.2416
▁grandparents	-12.2416
▁grites	-12.2416
▁hamburger	-12.2416
▁hangover	-12.2416
▁humiliated	-12.2416
▁identical	-12.2416
▁ilusión	-12.2416
▁improving	-12.2416
▁interview	-12.2416
▁kanji	-12.2416
▁koala	-12.2416
▁laguna	-12.2416
▁laundry	-12.2416
▁literature	-12.2416
▁llámame	-12.2416
▁magnífica	-12.2416
▁mahjong	-12.2416
▁malgaste	-12.2416
▁mischievous	-12.2416
▁necessity	-12.2416
▁nevada	-12.2416
▁niñito	-12.2416
▁omelet	-12.2416
▁overcoat	-12.2416
▁oysters	-12.2416
▁perdonado	-12.2416
▁physical	-12.2416
▁pirata	-12.2416
▁plaza	-12.2416
▁plazo	-12.2416
▁plástico	-12.2416
▁prevenir	-12.2416
▁privada	-12.2416
▁promoted	-12.2416
▁rabia	-12.2416
▁railroad	-12.2416
▁reproductor	-12.2416
▁resaca	-12.2416
▁response	-12.2416
▁rinda	-12.2416
▁semestre	-12.2416
▁simply	-12.2416
▁sostenía	-12.2416
▁stifle	-12.2416
▁sueña	-12.2416
▁swallow	-12.2416
▁sympathy	-12.2416
▁templo	-12.2416
▁terrified	-12.2416
▁tortured	-12.2416
▁tractor	-12.2416
▁traductor	-12.2416
▁translator	-12.2416
▁travieso	-12.2416
▁tropical	-12.2416
▁unmarried	-12.2416
▁whining	-12.2416
▁zumo	-12.2416
▁Brazilian	-12.2416
▁Napole	-12.2416
▁Turkey	-12.2416
▁connected	-12.2416
▁curioso	-12.2416
▁desmayar	-12.2416
▁fax	-12.2416
▁female	-12.2416
▁rastro	-12.2416
▁resbal	-12.2416
▁shade	-12.2416
▁splash	-12.2416
▁symbol	-12.2416
▁Éra	-12.2416
▁amateur	-12.2416
▁blog	-12.2416
▁paranoico	-12.2416
▁surgeon	-12.2416
▁gemela	-12.2416
▁niega	-12.2416
▁pedimos	-12.2416
Empezamos	-12.2416
ealand	-12.2416
elanda	-12.2416
▁Junt	-12.2416
▁earring	-12.2416
▁paranoid	-12.2416
▁sixteen	-12.2416
▁venture	-12.2416
▁zero	-12.2416
▁Honest	-12.2416
▁Work	-12.2416
▁defendant	-12.2416
▁discuta	-12.2416
▁entrevista	-12.2416
▁identidad	-12.2416
▁University	-12.2416
▁excursión	-12.2416
▁Wow	-12.2416
nunciado	-12.2416
▁recipe	-12.2416
▁Atrap	-12.2416
▁mailbox	-12.2416
▁pirate	-12.2416
▁agrado	-12.2416
▁sonrieron	-12.2416
ugiero	-12.2416
▁balloon	-12.2416
▁software	-12.2416
▁Biwa	-12.2416
▁Gold	-12.2416
▁equipment	-12.2416
▁fantastic	-12.2416
▁poverty	-12.2416
▁muela	-12.2416
▁receta	-12.2416
▁abriera	-12.2416
▁neat	-12.2416
▁patético	-12.2416
▁closing	-12.2416
▁valid	-12.2416
▁entendieron	-12.2416
▁refund	-12.2416
▁trial	-12.2416
▁tolerar	-12.2416
▁podrida	-12.2416
▁morder	-12.2416
▁combine	-12.2416
▁negotiation	-12.2416
▁sintieron	-12.2416
▁giró	-12.2416
▁gorra	-12.2416
▁tumor	-12.2416
▁Obviamente	-12.2416
▁flush	-12.2416
tify	-12.2416
▁sufriendo	-12.2416
▁Class	-12.2416
▁mentirosa	-12.2416
▁aliado	-12.2416
▁fascinated	-12.2416
▁espía	-12.2416
▁sweep	-12.2416
▁Perdona	-12.2416
▁espada	-12.2417
▁wage	-12.2417
▁sediento	-12.2417
▁casé	-12.2417
▁rompí	-12.2417
▁campus	-12.2417
▁sentencia	-12.2417
▁attach	-12.2417
▁assist	-12.2417
▁factura	-12.2417
▁curry	-12.2417
▁invitaste	-12.2417
Eh	-12.2417
▁rutina	-12.2417
▁shovel	-12.2417
▁palace	-12.2417
▁portón	-12.2417
▁reluctantly	-12.2417
▁existencia	-12.2418
▁engordado	-12.2418
▁chatting	-12.2418
▁crew	-12.2418
▁poderoso	-12.2418
▁venganza	-12.2418
▁obligación	-12.2418
▁applauded	-12.2418
▁entusiasmado	-12.2418
▁expression	-12.2418
▁Salgamos	-12.2418
▁accidentally	-12.2418
▁frequently	-12.2418
Podrá	-12.2418
▁apasiona	-12.2419
▁huir	-12.2419
▁leyera	-12.2419
▁observó	-12.2419
▁Result	-12.2419
▁Cop	-12.2419
▁personalidad	-12.2419
▁mask	-12.2419
▁olla	-12.2419
▁pub	-12.2419
▁demora	-12.242
▁reconozco	-12.242
▁coope	-12.242
▁frenos	-12.2421
▁wandered	-12.2421
▁tomatoes	-12.2421
▁preguntes	-12.2421
▁Run	-12.2421
▁relief	-12.2422
▁sixty	-12.2422
▁vendré	-12.2422
▁chest	-12.2422
▁relie	-12.2422
▁photographer	-12.2423
▁suavemente	-12.2423
▁approaching	-12.2423
▁severely	-12.2423
▁significant	-12.2423
▁mudarse	-12.2423
▁hook	-12.2423
▁cuidadosa	-12.2423
▁billion	-12.2424
▁vivimos	-12.2424
▁volviste	-12.2424
▁gallo	-12.2425
▁ordenada	-12.2425
▁occupied	-12.2425
▁rendirse	-12.2426
▁golden	-12.2426
▁pintando	-12.2427
▁contributed	-12.2428
▁trace	-12.2429
▁lastimarte	-12.2429
▁adventure	-12.2429
▁pensás	-12.243
▁revealed	-12.243
▁offended	-12.243
▁struggled	-12.243
▁animó	-12.243
▁mueve	-12.243
▁habilidades	-12.2431
▁provoca	-12.2431
▁chewing	-12.2431
▁created	-12.2431
▁pegado	-12.2431
▁familiarizado	-12.2432
▁despedirme	-12.2433
▁molestarte	-12.2433
▁shaved	-12.2433
▁negotiate	-12.2433
▁Angeles	-12.2434
▁señales	-12.2434
▁acordarme	-12.2435
▁carrots	-12.2436
▁cenó	-12.2436
ittle	-12.2437
▁hopeless	-12.2437
▁rellenar	-12.2438
▁Comamos	-12.2439
▁envejec	-12.2439
▁tiza	-12.244
▁slightly	-12.2441
▁guardado	-12.2443
▁hesitated	-12.2444
▁tightly	-12.2444
▁recado	-12.2444
▁culparte	-12.2445
▁Teach	-12.2445
▁interrupting	-12.2447
▁papa	-12.2447
▁discovery	-12.2448
▁acceptable	-12.2449
▁Jesus	-12.2449
▁preguntarme	-12.245
▁útiles	-12.2452
▁comparado	-12.2453
▁Six	-12.2456
▁impacto	-12.2459
▁insultó	-12.2462
▁utter	-12.2462
▁pidiera	-12.2463
▁ordenadores	-12.2466
▁fasten	-12.2467
▁considerada	-12.2468
▁correctly	-12.247
▁Marte	-12.247
▁acerques	-12.2471
▁creerá	-12.2475
▁manga	-12.2476
▁completed	-12.2477
▁arrestó	-12.248
▁Burn	-12.2482
▁Adivina	-12.2482
▁escalado	-12.2482
▁veamos	-12.2483
▁agente	-12.2484
▁registro	-12.2485
▁fuertemente	-12.2493
▁gradual	-12.2495
▁spy	-12.2499
▁delito	-12.2499
▁worker	-12.2499
▁contribu	-12.2499
▁capa	-12.2501
▁prender	-12.2504
▁hablaste	-12.2504
▁revisar	-12.2507
▁tank	-12.2509
▁preguntaré	-12.2509
▁muevas	-12.2516
▁frutos	-12.2516
▁emp	-12.2516
done	-12.2516
▁respected	-12.2517
▁admiraba	-12.2528
▁bot	-12.2535
▁mueren	-12.2536
▁huesos	-12.2538
▁Hola	-12.254
▁fro	-12.2546
▁Bi	-12.2547
▁corredor	-12.2551
▁owed	-12.2553
▁Ri	-12.2559
▁colgar	-12.256
▁huellas	-12.256
▁administra	-12.2561
▁cantado	-12.2561
▁uniforms	-12.2562
▁Ford	-12.2568
▁buscado	-12.2569
osen	-12.2569
Mi	-12.2575
▁risky	-12.258
▁veremos	-12.2582
▁remarks	-12.2583
▁apuros	-12.2583
▁palma	-12.2584
▁sip	-12.2589
▁catching	-12.2593
▁despega	-12.2593
▁mejorado	-12.2595
▁hab	-12.2611
Viniste	-12.2616
▁encantaba	-12.2624
▁separados	-12.2628
▁beginners	-12.2628
▁insulto	-12.2639
▁empezará	-12.2641
▁telephoned	-12.2642
▁sneeze	-12.2646
▁duermen	-12.266
▁nicer	-12.2662
▁liberar	-12.2662
▁esperá	-12.2664
▁states	-12.2666
▁pedía	-12.2678
▁relatives	-12.2686
▁equivocas	-12.2694
▁cambies	-12.2696
▁rayos	-12.2696
▁Manda	-12.2696
▁aterroriza	-12.2706
▁construye	-12.2735
aj	-12.276
▁vegetarians	-12.2764
▁toman	-12.2781
▁Drive	-12.2785
▁oculta	-12.2801
▁customs	-12.281
▁jugu	-12.2814
▁encogió	-12.2826
▁reforma	-12.2827
ison	-12.2833
▁aguanta	-12.2849
▁mejillas	-12.2856
▁deudas	-12.2856
▁trabaj	-12.2879
itis	-12.2883
▁Mars	-12.2898
▁directions	-12.2903
▁Pone	-12.2915
▁temor	-12.2921
▁Ganar	-12.2926
▁observa	-12.293
▁empac	-12.2937
dicated	-12.2945
▁cheeks	-12.2949
▁sow	-12.2971
▁cerdos	-12.2972
▁unió	-12.2981
ether	-12.3013
▁incluye	-12.3024
culo	-12.3031
▁adoptar	-12.3044
▁quemé	-12.3052
▁estudiara	-12.3058
▁verse	-12.3059
pie	-12.3067
▁anim	-12.3132
▁trueno	-12.314
▁cepilla	-12.3144
▁asegura	-12.3144
10,000	-12.3152
▁comport	-12.3159
▁recort	-12.3167
eat	-12.3171
▁derrota	-12.3173
▁castigar	-12.3175
zca	-12.3176
más	-12.322
▁Ponl	-12.3242
▁violenta	-12.3247
▁aparece	-12.326
▁cloud	-12.3295
tendré	-12.3302
primió	-12.332
▁plátano	-12.3321
▁supplie	-12.3322
▁ingreso	-12.3322
▁pierda	-12.3322
▁sobra	-12.3323
▁degree	-12.3325
▁customer	-12.3326
▁vegetable	-12.3329
▁grade	-12.333
▁orbit	-12.3338
▁ponen	-12.3345
▁diente	-12.3346
▁bl	-12.3349
▁Unido	-12.3362
▁typ	-12.3364
▁refer	-12.3371
▁nervios	-12.3372
▁tomate	-12.338
alizado	-12.3389
tendió	-12.3391
▁serie	-12.3394
▁chupa	-12.3397
▁tac	-12.343
▁equivocar	-12.343
Estuviste	-12.3451
Ja	-12.3457
▁coge	-12.3457
▁crow	-12.3461
resisti	-12.3463
bló	-12.3463
▁cal	-12.3466
lena	-12.347
Juega	-12.3472
▁impact	-12.3473
puedo	-12.3476
what	-12.3476
Hoy	-12.3476
▁zapat	-12.3477
The	-12.3478
▁recover	-12.348
▁instal	-12.3486
jera	-12.3487
rust	-12.3491
Quería	-12.3496
▁maní	-12.3505
▁Déja	-12.3505
▁calent	-12.3509
▁criticize	-12.3509
▁remove	-12.351
▁confuse	-12.351
▁sorprend	-12.3512
ddle	-12.3512
▁frighten	-12.3513
▁sail	-12.3514
▁franc	-12.3515
▁engord	-12.3515
▁Llegas	-12.3516
▁motiva	-12.3517
▁recompensa	-12.3518
▁fabrica	-12.3518
▁implica	-12.3518
▁nacional	-12.3518
▁horizon	-12.3519
▁sujet	-12.352
▁immediate	-12.352
▁vigil	-12.352
▁threat	-12.3524
▁Happ	-12.3525
▁pulse	-12.3525
▁cigar	-12.3526
▁contamina	-12.3526
▁gentle	-12.3526
▁jubila	-12.3526
uatro	-12.3527
graph	-12.3527
▁Thai	-12.3527
▁blank	-12.3527
▁advertis	-12.3527
▁amistoso	-12.3527
▁appeal	-12.3527
▁arbusto	-12.3527
▁asignatura	-12.3527
▁cachorro	-12.3527
▁cerezo	-12.3527
▁conduzca	-12.3527
▁crítica	-12.3527
▁exaggerate	-12.3527
▁fastidia	-12.3527
▁gossip	-12.3527
▁idéntico	-12.3527
▁imprudente	-12.3527
▁instinct	-12.3527
▁nephew	-12.3527
▁postcard	-12.3527
▁propina	-12.3527
▁refugee	-12.3527
▁resuelv	-12.3527
▁sobrino	-12.3527
▁universitaria	-12.3527
Estudias	-12.3527
▁Almorzamos	-12.3527
▁Añad	-12.3527
▁Berlín	-12.3527
▁Civil	-12.3527
▁Coffee	-12.3527
▁Contact	-12.3527
▁Continúa	-12.3527
▁Entende	-12.3527
▁Extraño	-12.3527
▁Fíj	-12.3527
▁Jesús	-12.3527
▁Kyushu	-12.3527
▁Nowadays	-12.3527
▁Portuguese	-12.3527
▁Respet	-12.3527
▁Sinceramente	-12.3527
▁Street	-12.3527
▁Study	-12.3527
▁advertir	-12.3527
▁aliviar	-12.3527
▁aprobación	-12.3527
▁athlete	-12.3527
▁atravesar	-12.3527
▁attentive	-12.3527
▁atómica	-12.3527
▁autobuses	-12.3527
▁awkward	-12.3527
▁baboon	-12.3527
▁bancarrota	-12.3527
▁biología	-12.3527
▁bride	-12.3527
▁cajero	-12.3527
▁cambié	-12.3527
▁campamento	-12.3527
▁carácter	-12.3527
▁cerradura	-12.3527
▁channel	-12.3527
▁chimney	-12.3527
▁cirujano	-12.3527
▁cliff	-12.3527
▁clumsy	-12.3527
▁collapse	-12.3527
▁complacer	-12.3527
▁compliment	-12.3527
▁concierne	-12.3527
▁conclusión	-12.3527
▁conducido	-12.3527
▁demonio	-12.3527
▁deprisa	-12.3527
▁descalzo	-12.3527
▁destination	-12.3527
▁devastated	-12.3527
▁dibujar	-12.3527
▁dibujó	-12.3527
▁direcciones	-12.3527
▁dumped	-12.3527
▁enciende	-12.3527
▁envidia	-12.3527
▁equilibrio	-12.3527
▁escabull	-12.3527
▁escándalo	-12.3527
▁espagueti	-12.3527
▁estadística	-12.3527
▁eternidad	-12.3527
▁feroz	-12.3527
▁flauta	-12.3527
▁grammatical	-12.3527
▁imitate	-12.3527
▁incumbe	-12.3527
▁injusta	-12.3527
▁insensitive	-12.3527
▁inteligencia	-12.3527
▁introduj	-12.3527
▁journey	-12.3527
▁maletín	-12.3527
▁maquillaje	-12.3527
▁marineros	-12.3527
▁misunderstood	-12.3527
▁muerde	-12.3527
▁muriera	-12.3527
▁mysterious	-12.3527
▁niñez	-12.3527
▁ostras	-12.3527
▁overweight	-12.3527
▁parecida	-12.3527
▁passionate	-12.3527
▁patatas	-12.3527
▁peluquería	-12.3527
▁perrito	-12.3527
▁pollution	-12.3527
▁profundidad	-12.3527
▁práctico	-12.3527
▁pulso	-12.3527
▁póquer	-12.3527
▁regañó	-12.3527
▁satisfactoria	-12.3527
▁satisfactory	-12.3527
▁seafood	-12.3527
▁shadow	-12.3527
▁shelter	-12.3527
▁shortcut	-12.3527
▁siblings	-12.3527
▁solitario	-12.3527
▁suegra	-12.3527
▁swept	-12.3527
▁símbolo	-12.3527
▁tatuaje	-12.3527
▁temblaba	-12.3527
▁thunder	-12.3527
▁tropas	-12.3527
▁typewriter	-12.3527
▁valija	-12.3527
▁votó	-12.3527
▁válido	-12.3527
Funciona	-12.3527
▁Agarra	-12.3527
▁Alquil	-12.3527
▁download	-12.3527
▁realizó	-12.3527
▁seatbelt	-12.3527
▁siembra	-12.3527
▁snack	-12.3527
▁thread	-12.3527
▁volcano	-12.3527
▁malvado	-12.3527
▁propone	-12.3527
▁vibra	-12.3527
▁Orange	-12.3527
▁banjo	-12.3527
▁conservative	-12.3527
▁decís	-12.3527
▁extent	-12.3527
▁malgasta	-12.3527
▁pediste	-12.3527
▁Clean	-12.3527
▁Kha	-12.3527
▁cinta	-12.3527
▁cueste	-12.3527
▁sneak	-12.3527
▁tercio	-12.3527
▁tobillo	-12.3527
▁Pára	-12.3527
▁aviones	-12.3527
▁bombarde	-12.3527
▁biology	-12.3527
▁diversión	-12.3527
▁manteca	-12.3527
▁qualified	-12.3527
▁semester	-12.3527
▁sorbo	-12.3527
▁ésos	-12.3527
▁associate	-12.3527
▁cease	-12.3527
▁toothache	-12.3527
▁Import	-12.3527
▁ankle	-12.3527
▁unsure	-12.3527
▁cristal	-12.3527
▁eligier	-12.3527
▁esquiando	-12.3527
▁camarero	-12.3527
▁clapped	-12.3527
▁mentiste	-12.3527
▁confesar	-12.3527
▁corrupt	-12.3527
▁ji	-12.3527
▁intervino	-12.3527
▁tornillo	-12.3527
firiendo	-12.3527
▁sailors	-12.3527
▁comunicación	-12.3527
▁pateó	-12.3527
▁defensa	-12.3527
▁roca	-12.3527
▁atasco	-12.3527
▁yawn	-12.3527
▁elderly	-12.3527
▁Contra	-12.3527
▁activo	-12.3527
▁crezca	-12.3527
▁spinach	-12.3527
▁profit	-12.3527
▁melted	-12.3527
▁aferr	-12.3527
▁revolución	-12.3527
▁snore	-12.3527
▁bacteria	-12.3527
▁despach	-12.3527
▁dolía	-12.3527
▁plastic	-12.3527
▁corresponde	-12.3527
▁guitarist	-12.3527
▁generación	-12.3527
▁apesta	-12.3527
▁calentador	-12.3527
▁meditando	-12.3527
▁hiking	-12.3527
▁invade	-12.3527
▁recuerde	-12.3527
▁statement	-12.3527
▁ahogarse	-12.3527
▁abrazó	-12.3527
▁díga	-12.3527
▁mortal	-12.3527
▁volcán	-12.3527
▁Madre	-12.3527
▁atleta	-12.3527
▁shaking	-12.3528
▁asiáticos	-12.3528
▁redacción	-12.3528
▁Roll	-12.3528
▁Paul	-12.3528
▁invadi	-12.3528
▁quédate	-12.3528
▁Sígue	-12.3528
▁trim	-12.3528
▁majority	-12.3528
length	-12.3528
▁cattle	-12.3528
▁desaparec	-12.3528
▁numerosa	-12.3528
▁obligation	-12.3528
▁escondidas	-12.3528
▁Déjanos	-12.3528
▁respondido	-12.3528
▁descubrimiento	-12.3528
▁interese	-12.3528
▁comimos	-12.3528
▁esencial	-12.3528
▁prometiste	-12.3528
▁mojada	-12.3528
▁heavier	-12.3528
▁temía	-12.3528
▁mandé	-12.3529
▁permitted	-12.3529
▁colgando	-12.3529
▁desesperado	-12.3529
▁opponent	-12.3529
▁fiable	-12.3529
▁pearl	-12.3529
▁expose	-12.3529
▁amarga	-12.3529
▁bug	-12.3529
▁hometown	-12.3529
▁Cow	-12.3529
appiness	-12.3529
▁pedal	-12.3529
▁asumi	-12.353
▁trasero	-12.353
▁Apresúrate	-12.353
▁costoso	-12.353
▁loyal	-12.353
▁doloroso	-12.353
▁depriv	-12.353
▁doubtful	-12.353
▁objection	-12.353
▁consideration	-12.3531
▁gritando	-12.3531
▁sacaste	-12.3531
▁rapidly	-12.3531
▁reparado	-12.3531
▁puro	-12.3531
▁Apart	-12.3531
▁capturado	-12.3531
▁vision	-12.3531
▁interrumpas	-12.3532
▁realista	-12.3532
▁azar	-12.3532
▁recto	-12.3532
▁established	-12.3533
▁revelar	-12.3533
▁melod	-12.3533
▁choque	-12.3533
▁terminaste	-12.3533
▁disculparse	-12.3533
▁darkness	-12.3533
▁Llegaré	-12.3533
▁Ayudé	-12.3533
▁sentimos	-12.3533
▁afilado	-12.3533
▁nevará	-12.3534
▁drain	-12.3534
▁subestimes	-12.3534
▁suene	-12.3534
▁horizonte	-12.3534
▁Remo	-12.3534
▁sintiendo	-12.3534
▁actualmente	-12.3535
▁ahogó	-12.3535
▁disgustado	-12.3535
alth	-12.3535
▁daña	-12.3535
▁Enseñ	-12.3535
▁regularmente	-12.3535
▁derrotado	-12.3536
▁intervened	-12.3536
▁matando	-12.3536
esconozco	-12.3536
▁slower	-12.3536
▁stunning	-12.3536
▁comprando	-12.3537
occer	-12.3537
▁misled	-12.3537
▁copies	-12.3538
▁amused	-12.3538
▁regresará	-12.3539
▁reza	-12.3539
▁spoiled	-12.3539
▁examined	-12.354
▁divertirse	-12.3541
▁ciertamente	-12.3541
▁adelanta	-12.3542
▁apagado	-12.3542
nock	-12.3543
▁taxista	-12.3544
▁apagaron	-12.3544
▁surf	-12.3544
▁culparía	-12.3544
▁former	-12.3545
▁tumbado	-12.3545
▁Terminar	-12.3545
▁patada	-12.3546
▁meditar	-12.3546
spare	-12.3546
▁stingy	-12.3548
▁escaparon	-12.3548
▁celosa	-12.3548
▁bebas	-12.3548
▁escrib	-12.3549
▁Long	-12.3549
▁politely	-12.3549
▁aceptaría	-12.355
▁lavado	-12.355
▁Existe	-12.355
▁filete	-12.355
▁arreglado	-12.3551
▁alejado	-12.3551
▁blowing	-12.3551
▁hitch	-12.3552
▁ruidoso	-12.3552
▁delivered	-12.3552
▁mago	-12.3553
▁youngest	-12.3553
▁besaron	-12.3553
▁toast	-12.3553
▁referr	-12.3554
▁soportarlo	-12.3555
▁conform	-12.3556
▁alegrará	-12.3557
▁limited	-12.3558
▁confirmed	-12.3558
▁disgusted	-12.3559
▁tame	-12.356
▁criminales	-12.356
▁traditional	-12.356
▁rompa	-12.3562
▁posibilidades	-12.3562
▁saldr	-12.3562
cab	-12.3564
▁refieres	-12.3565
▁tortugas	-12.3565
▁principales	-12.3565
▁exacta	-12.3567
▁señaló	-12.3567
▁Corr	-12.3567
▁hipo	-12.357
▁carbono	-12.357
▁culpando	-12.3571
▁prestarme	-12.3572
▁organized	-12.3573
▁behaved	-12.3575
▁colgado	-12.3577
▁volc	-12.3578
▁Use	-12.3579
▁conservador	-12.3579
▁Cometí	-12.358
▁enseñado	-12.3582
toria	-12.3584
▁menores	-12.3587
▁errónea	-12.3588
▁hablemos	-12.359
▁ofrecer	-12.3592
▁marco	-12.3593
▁landing	-12.3593
wives	-12.3598
▁Cocin	-12.3599
▁lesion	-12.3599
▁calmado	-12.3603
▁diseñado	-12.3603
▁jueguen	-12.3608
▁cubr	-12.3608
▁creerle	-12.361
▁palomas	-12.3614
▁supongo	-12.3614
▁amaré	-12.3614
▁patiently	-12.3619
▁circu	-12.362
▁atrae	-12.362
▁choca	-12.3622
portable	-12.3624
▁differently	-12.3625
▁adivina	-12.3627
▁Duerm	-12.3629
▁Fire	-12.3641
▁mienten	-12.3644
▁Aliment	-12.3648
▁escribirle	-12.3649
▁visitarte	-12.3651
▁tenista	-12.3654
▁tubo	-12.3657
▁congelado	-12.3662
▁jog	-12.3664
enzo	-12.3669
▁industrial	-12.3671
▁distraer	-12.3673
ncionado	-12.3682
▁alter	-12.3683
▁mates	-12.3687
▁hablará	-12.3691
▁quebró	-12.3693
▁Revis	-12.3696
▁dejarme	-12.37
▁tooth	-12.37
▁nadador	-12.3701
▁notable	-12.3706
▁fuel	-12.3706
irme	-12.3708
▁oyes	-12.3712
▁costear	-12.3715
▁Consegui	-12.372
▁tool	-12.3729
▁Sobrevivi	-12.3732
▁tomates	-12.3741
▁exprimi	-12.3743
▁Norte	-12.3747
▁exceptional	-12.3752
▁dolphin	-12.3753
▁consola	-12.3753
▁coman	-12.3757
▁proporcion	-12.376
▁halla	-12.3764
▁antiques	-12.3765
▁spiders	-12.3765
▁vitamins	-12.3766
▁vitaminas	-12.3768
▁trabajamos	-12.377
▁mall	-12.3771
▁resolv	-12.3771
▁sentirá	-12.3791
▁granjeros	-12.3791
▁trucos	-12.3791
iversidad	-12.3796
▁load	-12.3806
unch	-12.3807
aped	-12.3808
▁robots	-12.3816
▁sheets	-12.3816
▁abrirá	-12.3825
ition	-12.3827
▁reca	-12.3853
▁consultar	-12.3853
▁impu	-12.3857
▁empeora	-12.3866
▁librar	-12.3868
▁Oye	-12.3889
▁arresto	-12.389
para	-12.3892
▁distribu	-12.3892
▁curar	-12.3892
▁considerable	-12.3896
▁Or	-12.3897
▁weighs	-12.3897
▁cerr	-12.3907
regó	-12.3917
▁freed	-12.3922
▁provocar	-12.3926
▁tanque	-12.3937
▁vari	-12.3938
▁Hága	-12.3944
▁criar	-12.3946
▁Limpi	-12.3957
avo	-12.3963
▁demandar	-12.3964
▁demands	-12.3977
ika	-12.3979
▁hablaron	-12.398
hone	-12.398
▁Toca	-12.3994
000	-12.4008
utter	-12.4035
▁Noel	-12.4048
cala	-12.4054
ille	-12.4061
▁Llame	-12.4095
awa	-12.4116
▁fam	-12.4123
▁manej	-12.4142
▁Abandon	-12.4152
ogen	-12.4159
▁casara	-12.416
▁hog	-12.416
▁Olvid	-12.4162
▁Cuidar	-12.4171
stén	-12.4175
▁admite	-12.4205
vate	-12.4218
▁cobra	-12.4222
▁Pol	-12.4227
▁sobrevivi	-12.4228
ándolo	-12.4266
vando	-12.4274
▁reform	-12.4279
▁enti	-12.4303
▁Paga	-12.4308
▁Limpia	-12.4311
▁aguarda	-12.4329
▁pil	-12.4358
riendo	-12.4361
▁Acept	-12.4363
▁deberá	-12.4366
▁elegi	-12.437
▁devolv	-12.4383
▁Dejar	-12.4383
bul	-12.4411
lió	-12.4422
ificó	-12.4422
tained	-12.4435
▁recuper	-12.445
▁Prueb	-12.445
▁oje	-12.446
▁chatte	-12.4467
▁Encontr	-12.4503
▁Responde	-12.4522
▁proporcionar	-12.4525
▁pein	-12.4534
▁Quita	-12.4541
▁impress	-12.4548
▁abr	-12.4556
▁absorbe	-12.4567
▁apuro	-12.4569
▁remark	-12.4571
▁escuche	-12.4572
▁consecuencia	-12.4573
▁oreja	-12.4575
nimals	-12.4575
▁verdura	-12.4577
▁preocupe	-12.4578
tenido	-12.4578
▁nube	-12.4579
▁aparc	-12.4589
tiende	-12.4606
▁pose	-12.4613
▁estima	-12.4624
▁graduar	-12.4639
▁anti	-12.4651
▁sock	-12.4661
▁Accident	-12.467
▁manteng	-12.468
puso	-12.4685
▁limpie	-12.4687
ucha	-12.4692
▁postul	-12.4697
▁preparándo	-12.4697
rected	-12.4701
Pasas	-12.4718
inició	-12.4723
▁Intent	-12.4723
confident	-12.4724
Entonces	-12.4725
Oye	-12.4726
Alguno	-12.4726
vuelta	-12.4726
write	-12.4726
puede	-12.4726
May	-12.4726
Voy	-12.4726
dijo	-12.4726
quién	-12.4726
phone	-12.4728
▁carbon	-12.4729
10.	-12.4732
Déjame	-12.4735
estás	-12.4739
▁agradecer	-12.4739
▁tí	-12.4739
mbled	-12.4739
ebra	-12.4741
▁agent	-12.4741
▁masa	-12.4744
▁desayun	-12.4746
▁aceptad	-12.4747
▁Quedé	-12.4748
▁racist	-12.4748
▁aprueb	-12.4751
Estará	-12.4753
▁frances	-12.4754
pressed	-12.4755
▁ceder	-12.4755
▁compete	-12.4756
ended	-12.4757
▁alquil	-12.4758
▁deceive	-12.476
elieve	-12.476
▁magnet	-12.4762
▁grie	-12.4763
▁focus	-12.4763
▁spoil	-12.4763
▁offend	-12.4763
▁betray	-12.4763
▁Plan	-12.4764
▁rod	-12.4767
▁mineral	-12.4769
▁subestim	-12.4769
▁compani	-12.477
▁numb	-12.4772
▁plena	-12.4775
▁sucedie	-12.4775
▁murmur	-12.4775
▁emotion	-12.4775
cience	-12.4775
▁numero	-12.4776
▁regar	-12.4776
ventually	-12.4776
abbits	-12.4776
hower	-12.4776
▁anticipa	-12.4776
▁tendenc	-12.4776
raffic	-12.4776
▁react	-12.4776
▁averig	-12.4777
▁slave	-12.4777
▁precipi	-12.4777
spiérta	-12.4777
▁precau	-12.4777
athematics	-12.4777
▁cacahu	-12.4777
▁knit	-12.4777
▁neglect	-12.4777
▁abarrotad	-12.4777
▁advertencia	-12.4777
▁amistosa	-12.4777
▁bikini	-12.4777
▁cadáver	-12.4777
▁camiseta	-12.4777
▁cardíaco	-12.4777
▁chapter	-12.4777
▁clarinet	-12.4777
▁contradict	-12.4777
▁dialect	-12.4777
▁espacial	-12.4777
▁exhilarat	-12.4777
▁frutilla	-12.4777
▁fundamental	-12.4777
▁furnish	-12.4777
▁imitar	-12.4777
▁impresionar	-12.4777
▁inseparable	-12.4777
▁mariposa	-12.4777
▁monstruo	-12.4777
▁nocturno	-12.4777
▁obsolet	-12.4777
▁reconsider	-12.4777
▁respetuoso	-12.4777
▁sleeve	-12.4777
▁sobresaliente	-12.4777
▁sobrina	-12.4777
▁temporal	-12.4777
▁tempt	-12.4777
▁unwilling	-12.4777
▁valiosa	-12.4777
▁vanidoso	-12.4777
▁virtue	-12.4777
Conocé	-12.4777
cuérda	-12.4777
lmorcé	-12.4777
ollywood	-12.4777
▁Adelante	-12.4777
▁Además	-12.4777
▁Beethoven	-12.4777
▁Control	-12.4777
▁December	-12.4777
▁Disculpa	-12.4777
▁Dutch	-12.4777
▁Einstein	-12.4777
▁Embassy	-12.4777
▁Gast	-12.4777
▁Green	-12.4777
▁Language	-12.4777
▁Madrid	-12.4777
▁Nagano	-12.4777
▁Nagoya	-12.4777
▁Nintendo	-12.4777
▁Nixon	-12.4777
▁OVNI	-12.4777
▁Obama	-12.4777
▁Posiblemente	-12.4777
▁Recientemente	-12.4777
▁Shibuya	-12.4777
▁Shinano	-12.4777
▁Sospech	-12.4777
▁Strange	-12.4777
▁Tailandia	-12.4777
▁Thursday	-12.4777
▁Titanic	-12.4777
▁aburrimiento	-12.4777
▁accurate	-12.4777
▁alemanes	-12.4777
▁alfabeto	-12.4777
▁almorzado	-12.4777
▁amenazó	-12.4777
▁aprenda	-12.4777
▁apretar	-12.4777
▁arrancó	-12.4777
▁cafeteria	-12.4777
▁calcetín	-12.4777
▁cariño	-12.4777
▁cementerio	-12.4777
▁centavo	-12.4777
▁cepillo	-12.4777
▁champú	-12.4777
▁chatarra	-12.4777
▁cintura	-12.4777
▁comience	-12.4777
▁community	-12.4777
▁connection	-12.4777
▁consciencia	-12.4777
▁crítico	-12.4777
▁cycling	-12.4777
▁cántaros	-12.4777
▁delfines	-12.4777
▁departure	-12.4777
▁descartar	-12.4777
▁desconcertado	-12.4777
▁despistado	-12.4777
▁destruida	-12.4777
▁differ	-12.4777
▁dinosaurio	-12.4777
▁diplomática	-12.4777
▁dispos	-12.4777
▁domestic	-12.4777
▁doorknob	-12.4777
▁eliminar	-12.4777
▁enormous	-12.4777
▁envidio	-12.4777
▁envíe	-12.4777
▁esclavitud	-12.4777
▁espantoso	-12.4777
▁estudie	-12.4777
▁estudié	-12.4777
▁explotó	-12.4777
▁firewood	-12.4777
▁flojo	-12.4777
▁forbidden	-12.4777
▁furiosa	-12.4777
▁fósforo	-12.4777
▁gambling	-12.4777
▁gloomy	-12.4777
▁gramatical	-12.4777
▁guitarrista	-12.4777
▁haunted	-12.4777
▁hobbies	-12.4777
▁incurable	-12.4777
▁indecis	-12.4777
▁intelligence	-12.4777
▁irresponsable	-12.4777
▁jarrón	-12.4777
▁jueves	-12.4777
▁juventud	-12.4777
▁lipstick	-12.4777
▁ministro	-12.4777
▁monedero	-12.4777
▁muelle	-12.4777
▁muñeco	-12.4777
▁narices	-12.4777
▁naughty	-12.4777
▁negative	-12.4777
▁negativo	-12.4777
▁niñita	-12.4777
▁ocurriendo	-12.4777
▁ovni	-12.4777
▁palillos	-12.4777
▁pathetic	-12.4777
▁peluquero	-12.4777
▁pertenencias	-12.4777
▁pochoclo	-12.4777
▁policies	-12.4777
▁preocupo	-12.4777
▁privacy	-12.4777
▁probabilidad	-12.4777
▁prosper	-12.4777
▁pulsar	-12.4777
▁recibo	-12.4777
▁revolution	-12.4777
▁ribbon	-12.4777
▁ridícula	-12.4777
▁rumbo	-12.4777
▁sauce	-12.4777
▁sidewalk	-12.4777
▁snuggle	-12.4777
▁stroke	-12.4777
▁supply	-12.4777
▁temporary	-12.4777
▁testamento	-12.4777
▁thieves	-12.4777
▁toneladas	-12.4777
▁tradición	-12.4777
▁translating	-12.4777
▁tromb	-12.4777
▁turtles	-12.4777
▁tuviese	-12.4777
▁título	-12.4777
▁unnecessary	-12.4777
▁vaqueros	-12.4777
▁virtud	-12.4777
▁waist	-12.4777
▁withdrew	-12.4777
▁Consult	-12.4777
▁Holanda	-12.4777
▁Hope	-12.4777
▁acomod	-12.4777
▁atascado	-12.4777
▁automático	-12.4777
▁conectad	-12.4777
▁conocés	-12.4777
▁desnuda	-12.4777
▁escondas	-12.4777
▁escondí	-12.4777
▁fractur	-12.4777
▁gasoline	-12.4777
▁oiga	-12.4777
▁pilchas	-12.4777
▁proceso	-12.4777
▁sharing	-12.4777
▁transporte	-12.4777
▁uneasy	-12.4777
▁voces	-12.4777
▁átomo	-12.4777
▁blink	-12.4777
▁blunt	-12.4777
▁bunk	-12.4777
▁conversando	-12.4777
▁erigi	-12.4777
▁ileso	-12.4777
▁internet	-12.4777
▁natación	-12.4777
▁penicil	-12.4777
▁repisa	-12.4777
▁yogur	-12.4777
▁agricultura	-12.4777
▁origen	-12.4777
▁tequila	-12.4777
▁automatically	-12.4777
▁calculadora	-12.4777
▁confront	-12.4777
▁nasty	-12.4777
▁Milk	-12.4777
▁flock	-12.4777
▁grandpa	-12.4777
▁Feder	-12.4777
▁iPod	-12.4777
▁jewelry	-12.4777
▁muralla	-12.4777
▁destinad	-12.4777
▁bondad	-12.4777
▁sector	-12.4777
▁encaja	-12.4777
▁humillad	-12.4777
▁maltrat	-12.4777
▁rational	-12.4777
értelo	-12.4777
▁afterwards	-12.4777
▁algodón	-12.4777
▁memories	-12.4777
▁surface	-12.4777
▁Thailand	-12.4777
▁centim	-12.4777
▁limone	-12.4777
▁ninja	-12.4777
▁tejiendo	-12.4777
▁Step	-12.4777
▁Siénte	-12.4777
▁atender	-12.4777
▁discute	-12.4777
▁Croa	-12.4777
▁delicate	-12.4777
▁potencia	-12.4777
▁huracán	-12.4777
▁juzgue	-12.4777
▁distingue	-12.4777
▁workaholic	-12.4777
▁ficción	-12.4777
▁máscara	-12.4777
▁dental	-12.4777
▁merezco	-12.4777
▁niego	-12.4777
▁creative	-12.4777
▁invención	-12.4777
▁monster	-12.4777
▁fuéramos	-12.4777
▁tremble	-12.4777
▁sostiene	-12.4777
▁ambigu	-12.4777
▁enlace	-12.4777
▁loving	-12.4777
▁refugiados	-12.4777
▁Islam	-12.4777
▁strawberries	-12.4777
▁Drop	-12.4777
▁entorno	-12.4777
▁calculator	-12.4777
▁infect	-12.4777
▁Vigil	-12.4777
▁nacionalidad	-12.4777
▁quinient	-12.4777
▁clue	-12.4777
▁govern	-12.4777
▁automáticamente	-12.4777
▁griega	-12.4777
▁estallar	-12.4777
▁consciousness	-12.4777
▁percat	-12.4777
▁partner	-12.4777
aboton	-12.4778
▁Pruébate	-12.4778
▁griego	-12.4778
▁hacés	-12.4778
▁agradecimiento	-12.4778
▁inund	-12.4778
▁Recoge	-12.4778
▁context	-12.4778
▁knitting	-12.4778
▁relajarse	-12.4778
▁obtuve	-12.4778
▁helada	-12.4778
▁creés	-12.4778
▁click	-12.4778
▁exhibition	-12.4778
▁Despert	-12.4778
▁abrazo	-12.4778
▁descuidado	-12.4778
▁cupboard	-12.4778
▁salesman	-12.4778
▁deletrea	-12.4778
▁interrumpió	-12.4778
▁runner	-12.4778
▁agosto	-12.4778
▁sunlight	-12.4778
▁Luck	-12.4778
▁activa	-12.4778
▁ballet	-12.4778
▁bombones	-12.4778
▁traté	-12.4779
▁rebelde	-12.4779
▁murmurando	-12.4779
▁hubi	-12.4779
▁Ciertamente	-12.4779
▁pronunciation	-12.4779
▁deadline	-12.4779
▁guiso	-12.4779
▁dependable	-12.4779
▁aplicación	-12.4779
▁preocupaciones	-12.4779
▁construyeron	-12.4779
▁existence	-12.4779
▁create	-12.4779
▁instalar	-12.4779
▁estableci	-12.4779
▁title	-12.478
▁sobrevivieron	-12.478
▁caramelo	-12.478
▁daily	-12.478
▁radical	-12.478
▁attic	-12.478
▁perlas	-12.478
▁trasera	-12.478
▁mantendrá	-12.478
▁aterrador	-12.4781
▁critical	-12.4781
▁feriado	-12.4781
▁lazie	-12.4781
▁motion	-12.4781
▁curb	-12.4781
inosaur	-12.4781
▁chairman	-12.4781
▁niece	-12.4781
▁seventy	-12.4781
▁beef	-12.4781
eliz	-12.4781
▁reap	-12.4782
▁costosa	-12.4782
ína	-12.4782
▁trade	-12.4782
▁disparado	-12.4782
▁distant	-12.4783
▁hervir	-12.4783
▁luchando	-12.4783
▁cruce	-12.4783
semeja	-12.4783
▁artificiales	-12.4784
▁fracasado	-12.4784
▁policemen	-12.4784
▁Uso	-12.4784
▁indignado	-12.4784
▁hip	-12.4785
▁salvado	-12.4785
▁firmemente	-12.4785
▁carné	-12.4785
▁bias	-12.4785
▁prediction	-12.4785
▁navegar	-12.4785
▁Trad	-12.4785
▁acu	-12.4786
▁bañando	-12.4786
▁pescando	-12.4787
▁ocurrirá	-12.4787
▁motivado	-12.4787
▁fabricado	-12.4787
▁frank	-12.4787
▁rodeos	-12.4787
▁Cold	-12.4787
▁EE	-12.4788
▁mantel	-12.4788
▁Dinos	-12.4788
UU	-12.4788
▁liado	-12.4788
▁preso	-12.4788
▁ruego	-12.4789
▁observe	-12.4789
▁voyage	-12.4789
pillar	-12.479
▁Nik	-12.479
ughter	-12.479
▁costaría	-12.479
▁manual	-12.4791
▁focused	-12.4791
▁fuss	-12.4791
▁mandado	-12.4791
▁corporal	-12.4791
▁versión	-12.4792
▁distri	-12.4792
▁version	-12.4792
▁fantástico	-12.4793
▁signal	-12.4794
▁Llegará	-12.4794
▁corría	-12.4794
▁sugiero	-12.4795
▁makeup	-12.4795
▁caída	-12.4795
▁acostarte	-12.4795
▁Hacé	-12.4796
▁ruta	-12.4797
▁criticized	-12.4797
▁gata	-12.4798
▁fastest	-12.4798
▁accomplished	-12.4799
▁presentarme	-12.4799
▁absurda	-12.4799
▁sillón	-12.4799
▁Comenc	-12.48
▁robé	-12.48
▁flute	-12.4801
▁reserved	-12.4802
bérmelo	-12.4803
▁visitarnos	-12.4804
▁enfadarse	-12.4805
▁racista	-12.4805
▁counter	-12.4806
▁gru	-12.4806
▁invité	-12.4807
▁Perdimos	-12.4807
▁Cook	-12.4807
▁Supu	-12.4808
▁querrá	-12.4809
▁perdonaré	-12.4809
▁moverse	-12.4811
▁padec	-12.4811
▁delgada	-12.4812
▁desprecio	-12.4813
▁besarte	-12.4814
▁superficial	-12.4814
▁protegerte	-12.4814
▁vuelan	-12.4814
▁ganaría	-12.4817
▁pacientemente	-12.4818
▁funcionando	-12.4819
▁evitarlo	-12.4819
▁Bajo	-12.4819
▁borr	-12.4819
▁oye	-12.4819
▁visado	-12.4821
▁molestado	-12.4821
▁declin	-12.4822
▁ironing	-12.4822
▁Póngase	-12.4822
Dormi	-12.4824
▁lifted	-12.4825
▁tape	-12.4825
gradecería	-12.4826
▁quedaste	-12.4826
▁onions	-12.4827
▁maintain	-12.4828
▁conflicto	-12.4829
jones	-12.483
▁salgamos	-12.4832
▁terminamos	-12.4833
▁felicitar	-12.4834
▁pasteles	-12.4835
▁cuidarte	-12.4835
▁darker	-12.4836
▁brillaba	-12.4836
sacre	-12.4836
▁Llévate	-12.4838
▁encontraremos	-12.484
▁ahoga	-12.4841
Baila	-12.4841
oner	-12.4841
▁terriblemente	-12.4841
▁llegaremos	-12.4844
burg	-12.4846
▁obeyed	-12.4848
▁pagaron	-12.4848
▁wealthy	-12.4848
▁cacahuetes	-12.4848
▁periodo	-12.4852
▁costado	-12.4853
▁explicaré	-12.4853
▁relaxing	-12.4854
▁Bear	-12.4855
Espera	-12.4856
▁terminaron	-12.4856
▁Describ	-12.4858
aka	-12.4861
▁marc	-12.4862
▁llamarlo	-12.4863
▁exacto	-12.4866
▁diferenciar	-12.4869
▁sábanas	-12.4877
▁colegas	-12.4877
▁galletitas	-12.4877
▁usarlo	-12.4883
▁violento	-12.4884
▁llamarte	-12.4886
▁Lé	-12.4888
▁detiene	-12.489
▁recupere	-12.489
▁hail	-12.4895
▁discussing	-12.4895
▁tango	-12.4905
▁llevé	-12.4906
▁pino	-12.4908
▁jugaban	-12.491
▁libras	-12.4914
azón	-12.4915
▁Wal	-12.4915
▁armada	-12.4916
isen	-12.4927
▁Comienz	-12.493
▁poli	-12.4931
▁ganará	-12.4932
▁seguiré	-12.4935
▁observado	-12.4938
going	-12.4941
rying	-12.4943
▁heating	-12.4948
▁familiares	-12.4952
aper	-12.4963
▁Canal	-12.497
▁acced	-12.4971
▁vean	-12.4972
▁reported	-12.4974
▁dejarle	-12.4974
▁encontraría	-12.4975
▁competente	-12.4976
▁pagaré	-12.4982
▁varía	-12.4986
▁gray	-12.4988
▁pararme	-12.4989
▁goma	-12.4995
▁ayudaron	-12.4999
▁triple	-12.5009
▁Lléva	-12.5013
▁mudo	-12.5018
▁atrasa	-12.5026
fully	-12.5027
▁supera	-12.5035
▁fáciles	-12.505
▁destaca	-12.5058
oru	-12.5065
Devuélveme	-12.5076
▁Comprendí	-12.508
▁represent	-12.5083
▁esperaré	-12.5095
▁inventar	-12.5098
▁qu	-12.511
ark	-12.5113
▁Suda	-12.5141
▁coast	-12.5141
▁arriesga	-12.5154
émoslo	-12.5162
▁castiga	-12.5183
Escuchas	-12.5199
currió	-12.5203
rung	-12.5206
▁conserva	-12.5212
▁sacrifice	-12.5219
fashioned	-12.5222
▁Escribi	-12.5226
▁gro	-12.524
▁expresa	-12.5247
▁receiv	-12.525
▁entrena	-12.5255
▁coste	-12.5259
▁desorden	-12.5261
▁pap	-12.5278
▁divid	-12.5305
▁negociar	-12.5309
hea	-12.5314
versa	-12.532
▁morirá	-12.5323
▁confundid	-12.5343
▁detesta	-12.5353
Who	-12.5359
▁pegar	-12.5362
▁conseguirá	-12.5372
▁consulta	-12.5384
▁besado	-12.5386
▁enterra	-12.5405
rior	-12.5417
▁Comparti	-12.5426
▁disculpar	-12.5446
▁arregle	-12.546
▁limpiara	-12.5482
▁Nation	-12.5504
entro	-12.5507
▁strip	-12.5509
weep	-12.5534
▁aspir	-12.554
▁costar	-12.5542
▁abusa	-12.5548
▁cuestionar	-12.5566
legó	-12.5569
▁consumi	-12.5579
▁bord	-12.5593
▁empe	-12.5607
▁indicate	-12.5613
▁confirmar	-12.5613
▁atrac	-12.5645
▁garantiza	-12.5673
▁desordenad	-12.5675
▁escapa	-12.5677
▁Nosotr	-12.5696
egro	-12.5702
▁mencion	-12.5705
aid	-12.5705
ella	-12.5713
▁Logr	-12.5735
íralo	-12.5761
▁ordenar	-12.5762
mamente	-12.5764
▁desear	-12.577
parked	-12.5791
preció	-12.582
cile	-12.5824
▁enfrenta	-12.5839
▁Vivir	-12.5844
▁añadi	-12.5868
▁rega	-12.5869
▁uniform	-12.5871
ondas	-12.588
▁extin	-12.5883
ium	-12.5884
▁salva	-12.5892
▁Permít	-12.5892
▁distin	-12.5923
▁pregunt	-12.5931
▁colga	-12.5938
like	-12.5944
▁enterar	-12.5969
▁suspend	-12.5984
▁Cambi	-12.5996
▁intent	-12.5998
▁huella	-12.5998
▁estampilla	-12.6
▁brake	-12.6
▁crop	-12.6003
▁peanut	-12.6004
▁británico	-12.6004
▁mueble	-12.6006
▁includ	-12.6009
▁consol	-12.6016
▁Bra	-12.6017
ientas	-12.6031
▁equivoc	-12.6034
▁milla	-12.604
▁Beb	-12.6042
▁aguard	-12.6042
bandonaron	-12.6047
lways	-12.6052
▁Sobre	-12.6058
▁Abo	-12.6071
tiene	-12.6073
▁lip	-12.6101
▁pal	-12.6104
▁instant	-12.6106
▁resfri	-12.6107
▁console	-12.611
▁arriesg	-12.6112
▁sigh	-12.6113
▁viví	-12.6131
▁ví	-12.6133
iguieron	-12.6135
▁irrelevant	-12.6137
▁Star	-12.6138
▁respir	-12.6138
▁mezcl	-12.614
hand	-12.6141
▁traig	-12.6142
▁formar	-12.6148
flexible	-12.6151
Hola	-12.6152
ounded	-12.6153
successful	-12.6154
struyó	-12.6154
skirt	-12.6154
espalda	-12.6154
minute	-12.6154
Thank	-12.6154
Había	-12.6154
heart	-12.6156
Oj	-12.6156
saw	-12.6159
▁tradition	-12.6162
ulated	-12.6165
place	-12.6169
▁arrepentir	-12.617
▁necessar	-12.6175
▁valle	-12.6175
vino	-12.6178
prendieron	-12.618
00,000	-12.6182
▁plea	-12.6183
cogí	-12.6185
Vosotr	-12.6187
▁swor	-12.6188
▁encourage	-12.6188
▁disguise	-12.6188
▁involve	-12.6189
▁examine	-12.6191
▁struggle	-12.6191
▁afila	-12.6192
▁flota	-12.6193
▁mastica	-12.6196
▁indigna	-12.6197
▁artificial	-12.6197
▁central	-12.6198
▁navega	-12.6199
▁contribute	-12.6199
▁interrumpir	-12.6201
▁Big	-12.6201
▁desemple	-12.6201
▁logic	-12.6204
▁US	-12.6204
▁convict	-12.6204
cript	-12.6204
ptim	-12.6204
▁brin	-12.6204
▁secuestrado	-12.6205
▁opone	-12.6205
▁vestir	-12.6205
▁calendar	-12.6205
fríe	-12.6205
▁recurr	-12.6205
▁futbol	-12.6205
▁reflect	-12.6205
nvité	-12.6205
▁Enséñ	-12.6205
▁belief	-12.6205
▁folk	-12.6205
▁pickpocket	-12.6205
▁romántica	-12.6205
▁survivor	-12.6205
gráfica	-12.6205
stitución	-12.6205
vísame	-12.6205
ángulo	-12.6205
óxido	-12.6205
▁Aguarda	-12.6205
▁Apunta	-12.6205
▁Conducir	-12.6205
▁Cuídate	-12.6205
▁DNA	-12.6205
▁Examine	-12.6205
▁Express	-12.6205
▁Gar	-12.6205
▁Háblame	-12.6205
▁Levánta	-12.6205
▁Muéstre	-12.6205
▁Netherlands	-12.6205
▁Nochebuena	-12.6205
▁Obviously	-12.6205
▁Palace	-12.6205
▁Promise	-12.6205
▁Relájate	-12.6205
▁Repentinamente	-12.6205
▁Valentín	-12.6205
▁acertijo	-12.6205
▁admiro	-12.6205
▁ahorita	-12.6205
▁alergia	-12.6205
▁almorzamos	-12.6205
▁angusti	-12.6205
▁apoyes	-12.6205
▁archaeologist	-12.6205
▁arduamente	-12.6205
▁asesinó	-12.6205
▁astronomía	-12.6205
▁attribute	-12.6205
▁australiano	-12.6205
▁babysitter	-12.6205
▁banquero	-12.6205
▁batteries	-12.6205
▁benefit	-12.6205
▁calefacción	-12.6205
▁calurosa	-12.6205
▁carcajada	-12.6205
▁carpenter	-12.6205
▁catálogo	-12.6205
▁cenizas	-12.6205
▁chantaje	-12.6205
▁chofer	-12.6205
▁chopsticks	-12.6205
▁cirugía	-12.6205
▁clarif	-12.6205
▁comestibles	-12.6205
▁compasión	-12.6205
▁compleja	-12.6205
▁conducción	-12.6205
▁confidencial	-12.6205
▁contagiosa	-12.6205
▁cooperation	-12.6205
▁cotton	-12.6205
▁cradle	-12.6205
▁culpó	-12.6205
▁decepción	-12.6205
▁defectuoso	-12.6205
▁democracia	-12.6205
▁dentífrico	-12.6205
▁deshonesto	-12.6205
▁despierte	-12.6205
▁destruido	-12.6205
▁devuelto	-12.6205
▁dictionaries	-12.6205
▁diligent	-12.6205
▁divertiste	-12.6205
▁efficient	-12.6205
▁elevó	-12.6205
▁embajador	-12.6205
▁emoción	-12.6205
▁entendemos	-12.6205
▁entusiasmo	-12.6205
▁equivoqué	-12.6205
▁errand	-12.6205
▁esperándote	-12.6205
▁estrelló	-12.6205
▁estupideces	-12.6205
▁exactitud	-12.6205
▁expliqué	-12.6205
▁fabuloso	-12.6205
▁fatiga	-12.6205
▁flies	-12.6205
▁fountain	-12.6205
▁fracasó	-12.6205
▁fregadero	-12.6205
▁hiciéramos	-12.6205
▁hidrógeno	-12.6205
▁hurricane	-12.6205
▁hígado	-12.6205
▁inapropiad	-12.6205
▁increment	-12.6205
▁industry	-12.6205
▁infarto	-12.6205
▁inhabitants	-12.6205
▁inseguro	-12.6205
▁inspired	-12.6205
▁instinto	-12.6205
▁intersection	-12.6205
▁irresponsible	-12.6205
▁italiana	-12.6205
▁jungle	-12.6205
▁lechuga	-12.6205
▁lettuce	-12.6205
▁limón	-12.6205
▁maleducado	-12.6205
▁mammal	-12.6205
▁mamífero	-12.6205
▁mankind	-12.6205
▁meditating	-12.6205
▁nacido	-12.6205
▁nocturna	-12.6205
▁noviembre	-12.6205
▁padrastro	-12.6205
▁palomitas	-12.6205
▁panadería	-12.6205
▁peculiar	-12.6205
▁perfección	-12.6205
▁persistent	-12.6205
▁pesimista	-12.6205
▁portugués	-12.6205
▁positivo	-12.6205
▁prejuicio	-12.6205
▁promising	-12.6205
▁proposición	-12.6205
▁psiquiatra	-12.6205
▁pudiéramos	-12.6205
▁pulmón	-12.6205
▁questionnaire	-12.6205
▁rebaja	-12.6205
▁receipt	-12.6205
▁recibe	-12.6205
▁reflexionar	-12.6205
▁regañado	-12.6205
▁sartén	-12.6205
▁satellite	-12.6205
▁satisfacer	-12.6205
▁satélite	-12.6205
▁scandal	-12.6205
▁secure	-12.6205
▁signature	-12.6205
▁simpatía	-12.6205
▁skeptic	-12.6205
▁snoring	-12.6205
▁sorrow	-12.6205
▁souvenir	-12.6205
▁stadium	-12.6205
▁stranded	-12.6205
▁stream	-12.6205
▁suertudo	-12.6205
▁sunbathing	-12.6205
▁sólida	-12.6205
▁sótano	-12.6205
▁telescope	-12.6205
▁telescopio	-12.6205
▁temblando	-12.6205
▁temperamento	-12.6205
▁tournament	-12.6205
▁tradicional	-12.6205
▁tripulación	-12.6205
▁troops	-12.6205
▁tropez	-12.6205
▁técnica	-12.6205
▁unattended	-12.6205
▁veinticinco	-12.6205
▁vergonzoso	-12.6205
▁vuelvo	-12.6205
▁wisdom	-12.6205
▁yield	-12.6205
lueve	-12.6205
▁Acorda	-12.6205
▁Airport	-12.6205
▁Alexand	-12.6205
▁Natur	-12.6205
▁Tráiga	-12.6205
▁bargain	-12.6205
▁cocido	-12.6205
▁desamparad	-12.6205
▁descifr	-12.6205
▁engañas	-12.6205
▁hydr	-12.6205
▁slim	-12.6205
▁spouse	-12.6205
▁tobacco	-12.6205
▁vacuum	-12.6205
▁Feel	-12.6205
▁Mostrame	-12.6205
▁Súbe	-12.6205
▁Venecia	-12.6205
▁YouTube	-12.6205
▁agitó	-12.6205
▁ambiente	-12.6205
▁bulb	-12.6205
▁crane	-12.6205
▁criticism	-12.6205
▁devorado	-12.6205
▁dishonest	-12.6205
▁duties	-12.6205
▁encantó	-12.6205
▁encerrado	-12.6205
▁espinacas	-12.6205
▁farmacia	-12.6205
▁flipp	-12.6205
▁garlic	-12.6205
▁handbag	-12.6205
▁hierve	-12.6205
▁intimida	-12.6205
▁inversión	-12.6205
▁lastimé	-12.6205
▁magician	-12.6205
▁slump	-12.6205
▁termino	-12.6205
▁Detente	-12.6205
▁Nació	-12.6205
▁alcance	-12.6205
▁escoger	-12.6205
▁foul	-12.6205
▁tasty	-12.6205
▁cafe	-12.6205
▁Report	-12.6205
▁Roja	-12.6205
▁diplomatic	-12.6205
▁identificar	-12.6205
▁picó	-12.6205
▁sequía	-12.6205
▁watermelon	-12.6205
▁gesto	-12.6205
▁intenso	-12.6205
▁racional	-12.6205
▁communication	-12.6205
▁grueso	-12.6205
▁ofender	-12.6205
▁sociable	-12.6205
▁representative	-12.6205
Cola	-12.6205
▁exceso	-12.6205
▁prettie	-12.6205
hága	-12.6205
▁ardilla	-12.6205
▁dispers	-12.6205
▁quebrado	-12.6205
▁silenciosamente	-12.6205
▁widow	-12.6205
▁Luckily	-12.6205
▁distraído	-12.6205
▁Pardon	-12.6205
▁accountant	-12.6205
▁arrug	-12.6205
▁disputa	-12.6205
▁examinar	-12.6205
▁torneo	-12.6205
▁vitore	-12.6205
▁damp	-12.6206
▁doorbell	-12.6206
▁estadio	-12.6206
▁fiddle	-12.6206
▁psychiatrist	-12.6206
▁allegation	-12.6206
▁outcome	-12.6206
▁platform	-12.6206
▁setenta	-12.6206
▁wreck	-12.6206
▁Britain	-12.6206
▁conquista	-12.6206
▁inténtalo	-12.6206
▁descarga	-12.6206
▁despejar	-12.6206
▁educated	-12.6206
▁shark	-12.6206
▁gané	-12.6206
▁calificaciones	-12.6206
▁factories	-12.6206
▁Cuelg	-12.6206
▁quote	-12.6206
▁specific	-12.6206
▁haciéndolo	-12.6206
ddling	-12.6206
▁cesta	-12.6206
▁dominio	-12.6206
▁fatter	-12.6206
▁parallel	-12.6206
▁rudo	-12.6206
▁calendario	-12.6206
▁proverbio	-12.6206
▁sacudirse	-12.6206
▁edge	-12.6206
▁Calm	-12.6206
▁aéreo	-12.6206
▁cayeron	-12.6206
rupción	-12.6206
▁afición	-12.6206
▁bruja	-12.6206
▁estrés	-12.6206
▁Filipino	-12.6206
▁Quiet	-12.6206
▁colabora	-12.6206
▁entendiera	-12.6206
▁bakery	-12.6206
▁tabla	-12.6206
▁carelessness	-12.6206
▁Human	-12.6206
▁anticipated	-12.6206
▁River	-12.6206
▁ingresar	-12.6206
▁objective	-12.6206
▁sorda	-12.6206
ocrat	-12.6206
▁barrer	-12.6206
▁nationality	-12.6206
▁cartero	-12.6206
diant	-12.6206
▁pecado	-12.6206
▁policia	-12.6206
gerir	-12.6206
▁espina	-12.6206
▁podrido	-12.6206
▁misteriosa	-12.6206
▁categoría	-12.6206
▁lejano	-12.6206
▁proverb	-12.6206
▁hormigas	-12.6206
▁gravedad	-12.6206
▁fulfill	-12.6206
▁Alps	-12.6206
▁disappointment	-12.6207
▁unbearable	-12.6207
fit	-12.6207
▁suspir	-12.6207
▁pronunciación	-12.6207
▁florece	-12.6207
▁realistic	-12.6207
▁interferir	-12.6207
▁fíe	-12.6207
▁hotter	-12.6207
▁lidia	-12.6207
▁sufrir	-12.6207
▁vanished	-12.6207
▁enseñanza	-12.6207
▁intensa	-12.6207
▁ladies	-12.6207
▁airmail	-12.6207
▁humid	-12.6207
▁entretenido	-12.6207
▁regalado	-12.6207
▁villagers	-12.6207
▁torpe	-12.6207
▁actuación	-12.6207
▁ojeada	-12.6207
▁regardless	-12.6207
▁Saqué	-12.6208
▁Roy	-12.6208
▁vigilando	-12.6208
▁bailarín	-12.6208
▁aparcado	-12.6208
▁function	-12.6208
▁pulsera	-12.6208
▁separó	-12.6208
▁fled	-12.6208
▁especie	-12.6208
▁humanity	-12.6208
▁philosophy	-12.6208
▁trajiste	-12.6208
▁aventón	-12.6209
▁untied	-12.6209
▁destrozado	-12.6209
▁Sentate	-12.6209
▁comic	-12.6209
▁Divid	-12.6209
▁passage	-12.6209
▁gene	-12.6209
▁ahogando	-12.6209
▁desempleado	-12.6209
▁entregué	-12.6209
▁salsa	-12.621
▁Jur	-12.621
▁Hide	-12.621
▁contaste	-12.621
▁banne	-12.621
▁ligeramente	-12.621
▁elija	-12.6211
vinc	-12.6211
▁gris	-12.6211
▁apresurado	-12.6211
▁estupendamente	-12.6211
▁shortage	-12.6211
▁evitando	-12.6211
▁frustrado	-12.6212
▁dimitir	-12.6212
▁speechless	-12.6212
▁mataste	-12.6212
▁vestirse	-12.6212
▁innecesario	-12.6212
▁chase	-12.6212
▁doblar	-12.6212
▁alcoholic	-12.6212
▁arco	-12.6212
▁disfrazado	-12.6212
▁entraste	-12.6212
▁leíste	-12.6212
▁ticking	-12.6212
▁instantly	-12.6212
▁especialidad	-12.6212
▁contratado	-12.6213
▁fist	-12.6213
▁existir	-12.6213
▁reclam	-12.6213
▁Venice	-12.6213
▁graduarse	-12.6213
▁choke	-12.6214
▁tomato	-12.6214
▁gano	-12.6214
▁perdonará	-12.6214
▁vengo	-12.6214
▁worthless	-12.6214
Estaría	-12.6214
▁minerales	-12.6215
▁Ski	-12.6215
▁escondiste	-12.6215
▁manejando	-12.6215
▁Diga	-12.6215
▁obligaron	-12.6215
▁snowman	-12.6215
▁dispararon	-12.6216
▁conquer	-12.6216
▁childish	-12.6216
▁nacionales	-12.6216
▁Seven	-12.6216
▁sucederá	-12.6216
▁Boys	-12.6217
▁retirarse	-12.6217
▁implicado	-12.6217
▁sickness	-12.6217
▁jardinero	-12.6217
▁volado	-12.6217
▁comparto	-12.6217
ésemos	-12.6218
▁extraordinario	-12.6218
employment	-12.6218
▁Comparado	-12.6218
▁repetirlo	-12.6218
▁opuesto	-12.622
▁conocerla	-12.622
▁indefenso	-12.622
▁unidos	-12.6221
▁crecido	-12.6221
010.	-12.6221
▁rasca	-12.6221
[...]
